memory_initialization_radix=2;
memory_initialization_vector=
1111110011000101
1111111100010110
0000000101010110
0000010000000100
1111111011000001
0000000101101100
0000001111011001
0000000001110100
0000000110001000
1111110111101110
0000000011000001
1111111001110001
1111110110001110
0000001010010110
1111111011101000
1111110100111011
0000001110001111
1111111011101110
1111110010001110
0000000111010001
0000010010000110
0000001111000111
0000000010001000
0000010100110011
0000000111100100
1111111111010110
1111111111001010
1111111001001100
1111111110101110
1111111100111001
1111110100011000
1111111000100110
0000001010111010
0000001000000101
0000001001001001
1111111001111001
1111111000101001
0000000100100101
0000001000110000
0000001111011000
1111110101011010
0000001011001110
0000000000110111
1111111000000111
0000001110011100
0000000110011011
0000000110110110
1111110100001011
1111111111101011
0000001101011011
0000000000010001
1111111111001100
1111111001000111
1111111001001010
1111110011100110
0000000000001110
1111111101010000
0000010000010110
1111110100001011
0000000110101011
1111111001100000
1111110100110110
0000001011101001
0000000101010000
0000001001010100
1111111100110010
0000001110000000
1111111001011100
1111111011001001
0000010000010101
0000000000111111
1111111110000001
1111111010000111
0000001010010000
1111110101111000
1111110111001011
1111110110010000
1111110101111111
1111110100111010
0000001011010100
1111110101100101
0000001011110000
0000010000011101
1111111001000101
1111110101010101
0000000111000110
0000010001100000
0000000010000111
0000000011000000
0000000110100101
0000000010100010
0000001100000111
0000001010101010
0000001011111010
1111111110001010
1111110100100011
1111110111111101
0000000110011111
1111110100101000
0000000111011000
0000000000000000
0000000000000010
1111111111011010
0000000000110100
0000000000101001
1111111111111100
0000000000011100
1111111110110110
1111111111010111
0000000000101000
0000000000100010
1111111111101110
0000000000011001
1111111111011111
0000000000010010
0000000000101011
1111111111010110
0000000000111111
1111111111110110
0000000000000000
0000000000000000
1111111111010011
1111111111111001
1111111111000111
1111111111010100
1111111111011110
1111111111001110
1111111111111010
0000000000101000
1111111111011001
0000000000101110
1111111111110100
1111111110110000
1111111110111111
0000000000100001
0000000000001100
1111111111111101
1111111111101111
0000000000101110
0000000000101001
1111111111101010
1111111111110100
0000000000000101
0000000000001100
1111111111001110
1111111111111101
0000000000100111
1111111111001100
0000000000011001
0000000000000000
0000000000010011
0000000000011001
0000000000101000
0000000000010010
1111111111011100
0000000000101101
0000000000010100
1111111111001101
0000000000010001
0000000000000011
1111111111000110
1111111110111101
1111111111101111
0000000000010101
1111111111111000
1111111111101011
0000000000011110
0000000000011001
0000000000011011
1111111110111000
0000000000001100
1111111111101101
1111111111000111
0000000000000011
0000000000010101
0000000000001011
0000000000000011
1111111111111111
1111111111000011
1111111111000101
0000000000000011
0000000000011000
0000000000001001
1111111111011011
1111111110110001
1111111111110110
0000000000000101
0000000000100100
1111111111011001
1111111111110010
1111111111001110
1111111110111111
1111111110111011
0000000000110011
1111111111000110
0000000000001000
1111111111100010
0000000000100110
1111111111110011
1111111110110100
0000000000100101
1111111111101110
1111111110110011
1111111111011111
1111111111111110
0000000000011110
1111111111010010
1111111111001101
0000000000011101
1111111111001101
0000000000001111
1111111111001101
1111111111011110
0000000000010010
1111111111111111
0000000000000101
0000000000010000
0000000000011011
1111111111111101
1111111111100100
1111111111011110
0000000000011011
1111111111101011
0000000000011101
0000000000000111
1111111111101011
0000000000000110
0000000000101101
0000000000110001
0000000000010001
1111111111010111
0000000000010110
1111111111001110
0000000000110100
0000000000000010
0000000000010010
0000000000010010
1111111111001100
0000000000011011
0000000000001110
1111111111011011
1111111111110001
1111111111001010
1111111110111010
1111111111000110
1111111111111100
0000000000110000
1111111111001100
1111111111110110
0000000000000110
1111111111111000
1111111111011001
0000000000100110
0000000000000110
1111111111001101
1111111111111000
1111111111001001
1111111111111110
1111111111111000
1111111111101011
1111111110110100
1111111111011110
0000000000110010
0000000000010010
1111111111011100
0000000000110101
1111111111010101
0000000000010101
0000000000010000
1111111111011110
0000000000000110
0000000000101100
1111111111100101
0000000000000101
1111111111010011
1111111111000000
1111111111111111
1111111111110101
1111111111100101
1111111111110110
1111111111011010
1111111111110010
1111111111110110
1111111111110011
1111111110111010
0000000000100010
1111111111101001
0000000000001111
0000000000100000
0000000000001110
1111111111000001
1111111111001010
1111111111011001
1111111111000010
0000000000100011
0000000000001010
1111111110111000
0000000000010010
1111111111100100
0000000000000100
1111111111110000
0000000000011110
1111111111101101
0000000000010000
1111111111100000
0000000000000010
0000000000011110
1111111111111000
0000000000000000
1111111111111110
0000000000001110
1111111110111111
1111111111111011
1111111111101000
1111111111110001
1111111110111111
0000000000000011
0000000000001111
1111111111111110
1111111111010111
1111111111100100
1111111111010010
0000000000110001
0000000000011100
0000000000010100
0000000000110001
0000000000001011
1111111111110000
1111111111010010
1111111111000011
1111111110111010
1111111111111111
0000000001000010
1111111111001100
0000000000110001
0000000000101011
1111111111000001
1111111111101111
0000000000100010
1111111111110011
1111111111111111
1111111111110001
1111111111101111
1111111111110100
1111111111111010
1111111111100001
1111111111101001
1111111111011011
0000000000010111
1111111111010111
1111111111010101
1111111111001111
0000000000111111
0000000000100111
0000000000001111
1111111110110111
1111111111111100
1111111111000010
1111111111001100
1111111111011000
0000000000010010
0000000000101010
1111111110110101
0000000000101010
1111111111101001
1111111111111111
1111111111110010
0000000000100000
1111111111001100
0000000000010011
0000000000000011
1111111111010010
0000000000001000
0000000000010010
1111111111100110
1111111111000011
1111111111001110
1111111111100001
0000000000010011
1111111111100100
1111111111010000
1111111111000100
0000000000011101
1111111111010001
1111111111011001
0000000000101100
0000000000010110
1111111111100101
1111111111101111
0000000000000001
1111111111011011
1111111111011010
0000000000001010
0000000000110000
0000000000100010
0000000000000010
0000000000011101
1111111111001000
0000000000101100
0000000000101011
1111111111010101
1111111111111111
0000000000010001
1111111110111001
1111111111110110
0000000000100010
0000000000100000
1111111110110111
1111111111000110
1111111111011011
0000000000110011
0000000000010000
0000000000011010
1111111111001101
1111111111100011
0000000000010010
1111111111011111
1111111111010111
1111111110111000
1111111111100010
0000000000010010
1111111111100110
1111111111101110
0000000000010110
1111111111110000
1111111111101001
0000000000000110
1111111111000011
0000000000101011
0000000000011111
1111111111000110
0000000000011011
1111111111100010
1111111111010011
1111111111101110
1111111111010101
1111111110110001
1111111110110111
1111111111110111
0000000000101100
1111111110111100
0000000000011100
0000000000001001
1111111111010101
1111111110110111
1111111111011100
1111111110110010
1111111110110011
1111111111001001
0000000000000001
1111111111101011
1111111111110111
0000000000101111
1111111111010010
1111111110111101
0000000000100111
0000000000100100
1111111111010000
0000000000011010
0000000000001011
1111111111101100
1111111111111011
1111111111100110
1111111111011110
0000000000000110
1111111111011010
1111111111100001
0000000000011010
0000000000101100
1111111111111110
1111111111011101
1111111111100011
0000000000101010
1111111110111110
0000000000000110
1111111111000100
1111111111000000
1111111111011101
0000000000100001
1111111111111100
0000000000000000
1111111111001000
0000000001000001
0000000000010110
1111111111110101
1111111111101010
0000000001001110
0000000000110111
1111111111011011
1111111111100000
0000000000000110
1111111111111101
1111111111100000
0000000000101001
1111111111110011
1111111111101100
0000000000100101
1111111111011000
0000000000000000
0000000000000000
0000000000000000
1111111111011100
0000000000011010
1111111111110001
1111111111010010
1111111111011101
0000000000101100
1111111111100000
0000000001000011
1111111111111111
0000000000011111
0000000000010101
1111111111110000
0000000000100010
1111111111101001
0000000000001000
0000000000001000
0000000000101011
1111111111010001
0000000000000000
1111111111100000
1111111111010111
1111111111111000
1111111111111010
0000000000100101
0000000000100101
0000000001000010
1111111111110010
1111111111100110
0000000000010000
0000000000111011
1111111111101100
0000000000111110
0000000001000010
0000000001000010
0000000000011111
1111111111111010
0000000000011101
1111111110110101
0000000000110001
0000000000010110
0000000000101101
0000000000101011
1111111111101001
0000000000110011
0000000000000101
1111111111100110
0000000000001101
0000000000010001
0000000000111100
1111111111011011
0000000000101101
0000000000010111
1111111111100010
1111111111101110
1111111111101011
0000000000110000
1111111111010100
1111111111111000
1111111111100001
1111111111111101
0000000000000110
0000000001001101
0000000001000000
1111111111111000
0000000000101111
0000000000011001
0000000000100110
0000000000101110
0000000000000000
1111111111100000
1111111111010010
1111111111010100
0000000000001010
0000000000111101
0000000000001110
0000000000111001
0000000000100111
1111111111110001
0000000000100011
1111111111111100
1111111111110010
1111111111111010
1111111111011111
0000000000101000
0000000000100101
1111111111110101
0000000000100000
0000000000111010
1111111111101111
0000000000100110
0000000000111011
0000000000011101
1111111111001111
0000000000110010
0000000000011001
0000000000001100
0000000000111000
1111111111100001
1111111111011111
0000000001001011
1111111111110011
0000000000100101
0000000000110100
1111111111111010
0000000000100010
1111111111111011
1111111111100110
0000000000111100
0000000000110010
0000000000101011
1111111111010010
0000000000000111
0000000000100000
0000000000101100
1111111111001110
0000000000011001
0000000000100010
0000000000000010
1111111111001011
0000000001001100
0000000000110010
0000000001001010
1111111111011001
1111111111110101
1111111111111111
0000000000100011
0000000000011001
1111111111101100
0000000000000101
1111111111111000
1111111111101110
1111111111110101
1111111111111000
0000000000001001
1111111111110011
1111111111111111
0000000000101100
0000000000010110
0000000000001110
0000000000000000
1111111111010011
0000000000101000
0000000000110000
0000000000000001
0000000000110101
1111111111010100
1111111111100101
1111111111010001
0000000000100000
1111111111100010
1111111111001111
0000000000011001
0000000000011111
1111111111011100
0000000000110000
1111111111100001
0000000000100010
0000000000110101
1111111111110011
1111111111011001
1111111111111000
1111111111100100
0000000000100010
0000000000011100
1111111111101001
0000000000101111
1111111111100111
0000000000010000
1111111111010110
0000000000011100
1111111111011101
0000000000110010
1111111111100010
0000000000110000
0000000000011001
0000000000011101
0000000000010010
0000000000010101
0000000000111100
0000000000110101
1111111111011100
0000000000010010
0000000000011110
1111111111101100
1111111111011100
0000000000110011
0000000000111110
0000000000010110
1111111111011001
1111111111100111
1111111111100010
1111111111011010
0000000000101011
0000000000111101
1111111111010011
0000000000010011
1111111111100111
1111111111100111
0000000000010111
1111111111010001
0000000000010001
1111111111101011
0000000000110011
0000000000101100
1111111111110100
1111111111110100
1111111111001110
0000000000010110
1111111111010010
1111111111001001
0000000001000000
0000000000000110
0000000000100010
1111111111101010
1111111111101010
0000000000101000
0000000000011101
0000000001000101
1111111111011110
0000000000010000
0000000000110000
1111111111111011
0000000000100101
1111111111001111
1111111111100001
1111111111011011
0000000000001011
0000000000000010
0000000000010101
1111111111110110
1111111111110110
1111111111101010
1111111111001011
1111111111011101
1111111111100000
0000000000100011
0000000000000000
0000000000010111
0000000001000000
1111111111100111
0000000000101000
1111111111011011
1111111111111011
0000000000100001
1111111111000100
0000000000101001
1111111111000101
1111111111111111
1111111111010011
1111111111011001
0000000000100010
1111111111001010
1111111111111011
1111111111011010
0000000000011001
0000000000001001
1111111111110111
1111111111100100
1111111111101011
1111111111111010
0000000000001111
0000000000111000
1111111111010111
1111111111111110
0000000000111100
0000000000111011
0000000000100100
1111111111111101
0000000000000010
1111111111010111
0000000000101010
1111111111110110
0000000000100011
0000000000110111
0000000000111010
1111111111100111
1111111111011101
0000000000111111
1111111111001100
1111111111001110
0000000001001010
1111111111100101
1111111111111000
1111111111001001
0000000000011010
0000000000000000
1111111111011010
1111111111011110
0000000001000000
0000000000111110
1111111111011110
0000000000110101
0000000000101100
1111111111010010
1111111111100000
1111111111010001
1111111111011010
1111111111110110
0000000000100111
1111111111101010
0000000000001011
1111111111110001
0000000000110101
1111111111011000
1111111111001110
0000000000111101
0000000000000100
1111111111101111
0000000000101001
1111111111101111
1111111111101001
0000000000010011
1111111111110110
1111111111100110
1111111111010110
0000000000101001
0000000000100000
0000000000001111
0000000000101111
0000000000010100
0000000000110011
0000000000111111
0000000001000011
0000000000000001
1111111111110011
1111111111101110
0000000001000111
1111111111110010
0000000000100100
0000000000101000
0000000000001001
1111111111100111
1111111111101111
0000000000111101
0000000000011100
0000000000000011
0000000000001011
0000000000011011
0000000000101011
0000000000110100
1111111111011100
1111111111001110
0000000000011000
1111111111111100
1111111111111100
0000000000011101
0000000000001111
1111111111011000
0000000000000000
0000000001001001
1111111111110111
0000000000010000
0000000001000110
1111111111110010
1111111111100100
0000000000000001
1111111111111100
0000000000001000
1111111111110010
0000000000011010
1111111111000000
1111111111100010
0000000000111100
1111111111110000
1111111111111100
0000000000000000
1111111111100010
1111111111011101
1111111111110000
0000000000111011
0000000000010011
0000000001001001
0000000000110010
0000000000100111
0000000000101111
0000000000000110
1111111111011011
0000000000011010
0000000000111000
0000000000000000
0000000000101010
0000000000111011
1111111111010010
1111111111001010
0000000000100010
1111111111010110
0000000000010110
1111111110111010
1111111111001101
0000000000101010
1111111111101001
0000000000101110
1111111111011001
0000000000001101
0000000000101010
1111111111110110
0000000000110000
0000000000000000
0000000000000000
0000000000000000
1111111111101110
0000000000111001
0000000000000111
1111111111110001
0000000000100100
0000000000011110
0000000000101110
0000000000000110
1111111111010001
0000000000000110
0000000000000011
1111111111100000
0000000000100101
0000000000100010
0000000001000100
1111111111100000
0000000000010111
0000000000100010
0000000000000000
1111111111000011
1111111111101100
0000000000011101
0000000000000001
0000000000010111
0000000000011000
1111111111011000
0000000000111010
0000000000101110
0000000000110000
1111111111010010
1111111111100110
1111111111010101
1111111111111010
1111111111010111
1111111111111010
1111111111111000
1111111111100110
0000000000001110
0000000000100100
0000000000001011
1111111111100000
1111111111101011
1111111111110010
1111111111011000
1111111111010100
0000000000111101
0000000000010110
0000000000000000
0000000001000101
0000000000001010
0000000000101011
1111111111111000
1111111111110011
1111111111010101
1111111111010100
0000000000110001
1111111111100000
1111111111101101
1111111111111100
0000000000110111
0000000000010110
0000000000010001
1111111111000100
0000000000001011
1111111111101000
0000000000011001
0000000000101001
0000000000010011
0000000001010110
0000000000010110
0000000000001011
0000000000011101
1111111111110000
0000000000010100
0000000000110000
0000000000000010
1111111111110010
0000000000010111
0000000000001001
1111111111011010
0000000000011001
0000000000011110
0000000000100001
1111111110111100
1111111111001000
1111111111010000
0000000000000010
0000000000110011
0000000000010001
0000000000011001
0000000001000101
0000000000001101
1111111111101111
1111111111000001
0000000000011110
1111111111100100
0000000000110001
1111111111010100
1111111111110100
1111111111010100
1111111111011111
0000000000110101
0000000000110101
0000000000000010
1111111111100111
0000000000011011
1111111111101010
0000000000010110
0000000000000110
0000000001001110
1111111111000111
1111111111110010
1111111111010100
1111111111110100
1111111111101110
0000000000000111
0000000000111000
1111111111100110
1111111111100001
0000000000100101
1111111111111011
1111111111011000
1111111111100001
0000000000101111
1111111111011000
0000000000000111
1111111111010001
0000000000001100
0000000000101001
0000000000000010
1111111111000100
0000000000000011
1111111110001111
1111111110110110
1111111111011100
0000000001011010
0000000000101011
1111111111101001
1111111111010001
0000000001000000
0000000000010110
0000000000101111
1111111111001000
0000000001000101
0000000000011111
1111111111011101
0000000000100000
1111111111111101
1111111111101011
0000000000001111
1111111111011000
1111111110011111
1111111110000100
1111111111010101
1111111111010011
0000000001010100
0000000001010010
1111111111100001
1111111111101001
1111111111100100
0000000000101110
1111111110111001
1111111111011101
1111111111001110
0000000000100000
0000000000101100
0000000000100010
0000000000010110
0000000000100010
0000000000000110
0000000000010000
1111111110100100
1111111111111010
1111111111110000
1111111111111010
1111111111010001
0000000000111000
0000000001000001
1111111111110011
1111111111100010
1111111111001010
1111111111101000
0000000000011001
0000000000100100
0000000001000111
1111111111011001
0000000000001000
1111111111111001
0000000000001110
1111111110111011
1111111111011011
0000000000010001
1111111111110010
1111111111000010
1111111110110110
0000000000110101
1111111111101111
1111111111101100
1111111111101011
0000000000100111
0000000000010011
1111111111010010
1111111110110100
0000000000011001
0000000000000100
0000000000001001
1111111111110100
1111111111011101
1111111111011101
1111111111010101
0000000000100000
0000000000010100
0000000000011000
1111111111011001
0000000000000011
1111111111110010
0000000000110111
0000000000101110
0000000000011100
1111111111100010
1111111111000000
1111111111111101
0000000000010111
1111111111101001
0000000000010000
0000000001010101
0000000001110010
0000000001011001
0000000000011111
1111111111100101
0000000000001110
1111111111101100
1111111111111100
1111111110110101
1111111111010111
1111111111111100
0000000000011000
0000000001000000
1111111111011010
0000000001000011
0000000000101101
1111111110111101
1111111111001010
1111111111101100
1111111111111010
0000000000111000
0000000000101100
0000000001000101
1111111111100100
0000000000010111
0000000000100001
1111111111010110
1111111111101101
1111111111000000
0000000000100010
1111111111111001
0000000000010010
0000000000110000
0000000000000010
1111111111101111
0000000000100001
1111111111100101
1111111111100001
1111111111110100
1111111111010100
0000000000101000
0000000001100010
0000000001010001
0000000001000000
0000000000001101
0000000000011000
0000000000010000
1111111110111011
0000000000001010
1111111110111111
1111111111010101
1111111111010110
0000000001000010
1111111111110110
1111111111010111
1111111111001001
0000000000100000
1111111111010110
0000000000000001
1111111110100100
1111111111010100
0000000000011110
0000000001001011
0000000000100011
0000000000011100
1111111111111111
0000000000011011
0000000000001100
1111111111011000
1111111111111110
0000000001000000
1111111111101110
0000000000001101
1111111111010101
0000000000010101
1111111111100101
0000000000101000
1111111111111001
1111111111001010
1111111110111011
1111111111110100
1111111111101001
0000000001100110
0000000000011001
1111111111111100
1111111111110101
1111111111010110
1111111111010101
1111111111010010
1111111111010001
0000000000100000
0000000000110110
1111111111110011
1111111111011100
0000000001000110
1111111111010010
0000000000001011
0000000000001101
1111111111011111
0000000000001111
0000000000110011
1111111111011001
1111111111101010
0000000001000001
1111111111111101
0000000000100100
0000000000111000
1111111111101010
1111111111000111
0000000000101010
1111111111101001
1111111111101001
0000000000000011
0000000000010110
1111111111111101
1111111111100110
0000000000100000
1111111111001110
1111111111100001
1111111111011011
0000000000010110
0000000000111001
1111111111010110
0000000000111001
0000000000010100
0000000000000010
1111111111100000
1111111111001001
0000000000011110
0000000000100101
1111111111010010
1111111111111010
0000000000101100
0000000000010110
0000000000101000
1111111111001100
0000000000100000
1111111111101000
1111111111010000
0000000000110100
0000000000100110
1111111111100011
1111111111010010
0000000000000011
0000000000100010
1111111111100001
0000000000110111
0000000000001011
0000000001000000
0000000000001001
0000000000111011
1111111111010110
0000000000010010
0000000000111001
0000000000000000
1111111111100100
1111111111010101
0000000000100011
1111111111001011
0000000000011100
0000000000100000
0000000000011010
1111111111101111
1111111111110011
1111111111100000
1111111111111101
1111111111011101
0000000000010111
0000000001001001
0000000000001100
0000000000100100
0000000000101010
0000000000000000
0000000000000000
0000000000000000
0000000001000001
0000000000010010
0000000000110110
1111111111100010
1111111111011111
0000000000100011
1111111111010101
0000000000000100
1111111111111011
1111111111010011
1111111111000111
1111111111111110
1111111110111100
1111111111000010
0000000000001111
1111111111011000
0000000000100111
0000000000100010
0000000000000000
1111111111110110
1111111111100000
0000000000111010
0000000000011011
1111111111101100
1111111111001011
0000000000011001
1111111111111100
0000000000001001
1111111111110111
1111111110111100
0000000000100111
0000000000010110
0000000000010011
0000000000011010
1111111110111110
1111111111000110
0000000000001011
0000000000000110
0000000000001100
0000000000010110
0000000000010111
1111111110110111
1111111111100110
0000000000000001
0000000000000010
0000000000110010
0000000000100100
0000000000100011
1111111111101000
1111111111010011
1111111111001110
1111111111111110
0000000000110010
0000000000100101
1111111111011100
0000000000001001
1111111111110010
1111111111101100
0000000000001000
0000000000011000
1111111111010010
0000000000100111
0000000000001010
0000000000101010
1111111111111010
0000000000110100
1111111111111110
0000000000011000
0000000000100011
0000000000011001
1111111110110111
1111111111001001
1111111111010110
1111111111111111
1111111111001110
1111111111001110
0000000000000101
1111111110111010
0000000000010001
1111111111011010
1111111111001001
1111111111101100
1111111110111000
1111111111100010
0000000000001111
0000000000010001
1111111111010100
0000000000101000
1111111111011010
0000000000001110
0000000000101010
0000000000010010
1111111111101000
1111111111000010
1111111111001000
0000000000011010
0000000000101101
0000000000101110
0000000000101001
0000000000101011
1111111111011101
1111111111110101
0000000000100111
0000000000110000
0000000000100010
0000000000011001
1111111111100101
1111111110111011
1111111111111011
0000000000110001
1111111111110111
1111111111010100
1111111111011000
0000000000110000
0000000000101110
0000000000101011
1111111110111011
1111111111000000
0000000000100100
1111111111000110
1111111111010010
0000000000000101
0000000000010001
0000000000110101
0000000000010011
1111111111000110
0000000000110011
0000000000101101
1111111111001100
1111111111110111
1111111111001101
0000000000100110
0000000000111111
1111111111100001
1111111111111111
0000000000101000
0000000000011010
1111111111110001
1111111111010010
1111111111011101
1111111111101111
1111111111101000
1111111111011011
0000000000100110
1111111110110011
1111111111111001
0000000000110001
1111111111101000
0000000000011111
1111111111110101
0000000000110110
0000000000101011
1111111111101011
0000000000010011
1111111111010001
0000000000110100
1111111111011011
0000000000100011
1111111111101011
0000000000001011
0000000000100011
1111111111001100
1111111111101110
1111111111001111
0000000000110010
0000000001000001
0000000000010011
0000000000101001
0000000000011101
1111111111111100
0000000000011101
0000000000011001
0000000000010001
1111111111100111
1111111111111011
1111111111101111
1111111111100110
1111111111001011
0000000000010110
1111111111011101
1111111111110000
1111111111011111
1111111111110110
0000000000001010
1111111111001010
1111111111110110
0000000000001101
1111111111010000
1111111111100100
0000000000000100
1111111111110100
1111111110111110
1111111111101010
0000000000111010
1111111111101000
0000000000001100
1111111110111100
0000000000101111
0000000000001010
1111111111100001
0000000000010100
0000000000001101
0000000000000010
1111111111101010
1111111111011001
0000000000001000
0000000000100011
0000000000011011
0000000000101001
1111111111101000
0000000000001110
0000000000011110
1111111111110010
0000000000010101
0000000000001100
1111111110111111
0000000000000110
1111111111010011
1111111111100111
1111111111101100
1111111111100111
0000000000001110
1111111111001001
0000000000001001
1111111111010111
1111111111110010
1111111110111100
1111111111000111
1111111111111011
1111111110111111
1111111111001000
0000000000101000
0000000000011100
0000000000101100
1111111111111110
1111111111001101
1111111111010100
0000000000011010
1111111111101111
0000000000000011
0000000000000011
1111111111111110
1111111111110011
1111111111010100
1111111111101010
0000000000000001
1111111111101110
0000000000010110
0000000000001010
1111111111101000
1111111111000111
0000000000011111
1111111111100001
1111111111111111
1111111111011001
1111111111100011
0000000000100100
0000000000000101
0000000000001010
0000000000001010
1111111111100001
0000000000001011
1111111111110000
1111111111011011
1111111111100111
1111111111001011
1111111111001111
0000000000110001
1111111111000010
1111111111010001
0000000000001001
1111111111011011
1111111111101111
1111111111101110
0000000000011100
1111111110111111
1111111110111011
0000000000001000
1111111110111001
0000000000010011
0000000000100111
0000000000010001
0000000000000001
0000000000101000
1111111111000100
0000000000110110
1111111111100100
0000000000100100
0000000000110000
0000000000000110
1111111111111100
0000000000110101
0000000000000101
0000000000001110
1111111111001010
1111111111011000
0000000000101000
1111111111101001
0000000000001101
1111111111101101
1111111111011100
1111111111100011
1111111111101111
1111111111001101
1111111111101110
0000000000110001
1111111111001011
1111111110110111
0000000000100001
0000000000100001
0000000000010100
0000000000001000
0000000000001111
0000000000100010
0000000000100010
0000000000011001
1111111111100011
0000000000000000
1111111111001110
1111111111100001
1111111111101011
0000000000011100
0000000000011101
1111111111111111
0000000000001111
1111111111001111
0000000000010011
1111111111001111
0000000000011111
0000000000001100
0000000000001100
1111111111101011
1111111111111101
0000000000000000
1111111110111000
1111111110111100
1111111111110010
1111111111111110
0000000000111110
1111111111001100
1111111111010011
1111111110111000
0000000000101110
1111111111001001
0000000000000001
1111111110111010
1111111111100001
1111111111101011
1111111111101101
0000000000001011
1111111111100011
1111111111001111
1111111111100000
1111111111101011
0000000000010011
1111111111110001
0000000000101100
0000000000010010
1111111111100001
1111111111010011
0000000000001010
1111111111010110
1111111111011111
0000000000110010
1111111111001110
1111111111100110
0000000000000010
1111111111000010
1111111111000011
1111111111101111
0000000000000001
0000000000100110
0000000000000011
0000000000101111
1111111111101011
1111111111100101
1111111111110111
0000000000000011
1111111110111101
0000000000000000
0000000000000001
0000000000000010
0000000001000101
1111111111101110
0000000000111000
0000000000101000
1111111111111000
1111111111110000
0000000000101010
1111111110111100
1111111111110010
0000000000101111
0000000000010110
1111111111110110
0000000000101010
0000000001000110
1111111111011001
0000000000000000
0000000000000000
0000000000000000
1111111111000001
0000000000000110
0000000000010110
0000000000000111
0000000000111001
0000000000001101
1111111111110010
1111111111101111
1111111111010010
1111111111001101
1111111111011110
0000000000100011
1111111111011111
1111111111100101
0000000000101010
0000000000001000
0000000000010101
0000000000010010
0000000000000000
1111111111111000
1111111111100111
1111111111111011
1111111111111101
0000000000111000
1111111111010111
0000000000101011
1111111111111000
0000000000000001
0000000000101110
1111111111010011
1111111111001010
1111111111101110
1111111111100000
1111111111110100
0000000000011100
1111111111100010
0000000000000011
1111111111001100
1111111111001100
1111111111001110
0000000000100101
1111111111010101
0000000000110001
1111111111110000
1111111111111100
0000000000010100
1111111111110110
1111111111010100
0000000000110000
1111111111001111
0000000000110010
1111111111100000
1111111111010011
1111111111010100
0000000000011110
0000000001000101
0000000000001101
1111111111111010
1111111111111110
0000000000100001
0000000000100101
0000000000000111
0000000000001110
0000000000000110
1111111111010111
0000000000110100
1111111111001101
1111111111001101
0000000000010111
1111111111010011
0000000000100100
1111111111001011
0000000000011010
0000000000010000
0000000000010100
1111111111100001
0000000000011111
0000000000110010
1111111111001000
1111111111100000
1111111111111100
1111111111111010
0000000000011010
0000000000101101
1111111111010001
1111111111011111
1111111111010010
0000000000100000
0000000000000101
1111111111101001
1111111111111010
1111111111011111
1111111111001001
1111111111110001
1111111111101001
1111111111101101
1111111111110101
1111111111111111
1111111111101001
1111111111010000
0000000000000010
1111111111111011
0000000000001001
1111111111100100
0000000000001011
1111111111001001
1111111111111001
0000000000100010
1111111111010110
1111111111101111
1111111111001000
1111111111110110
1111111110111111
1111111111101011
0000000000110010
0000000000110011
0000000000010001
1111111111011110
1111111111010010
1111111111111000
0000000001000010
0000000000110001
1111111111010111
0000000000110101
0000000000101101
1111111111101100
1111111111010111
0000000000110000
0000000000001000
1111111111111111
1111111111101001
0000000000001000
1111111111011111
0000000000001011
0000000000101001
1111111111101010
1111111111100111
1111111111110100
0000000000001100
0000000000110011
0000000000010111
1111111111001110
1111111111011101
0000000000100001
0000000000010110
1111111111101001
1111111111100010
1111111111110110
1111111111111001
0000000000011011
0000000000110101
0000000000011001
0000000000000010
1111111111101011
0000000000110100
1111111111111001
0000000000101011
0000000000000011
0000000001000000
0000000000101100
1111111111110001
0000000000111001
1111111111100111
1111111111101001
1111111111111101
1111111111000100
1111111111000010
0000000000011010
1111111111001111
0000000000001100
0000000000111001
0000000000110010
1111111111111111
0000000000011110
0000000000001100
1111111111100000
0000000000001010
0000000000111011
1111111111101111
1111111111010010
0000000000100110
0000000000100111
1111111111110100
0000000000000011
0000000000101110
0000000000101111
0000000000001100
1111111111101101
1111111111101111
0000000000110001
1111111111110101
1111111111010100
0000000001000000
0000000001000101
1111111111110010
0000000000100010
0000000000110101
1111111111101101
0000000000111110
1111111111010111
1111111111010101
0000000000100111
0000000000010100
1111111111011101
0000000000010001
1111111110111001
1111111110101011
1111111111100001
1111111111011100
0000000000001001
1111111111101001
1111111111010000
0000000000100010
1111111111110010
0000000000001110
0000000000010100
0000000000111010
1111111111110011
0000000000010000
1111111111011010
0000000000000101
0000000000001101
0000000001000010
1111111111010010
1111111111011000
0000000000011100
0000000000010101
1111111111000100
1111111111010101
0000000001010111
0000000000100111
0000000000101000
1111111111110110
0000000000010111
0000000000110101
0000000000110011
1111111111100111
1111111111100010
1111111111001100
0000000000010000
0000000000110110
0000000000110000
1111111111111001
1111111111001100
1111111111000101
1111111111101000
1111111111101110
0000000000100111
1111111111011100
1111111111111100
0000000000101110
0000000001000100
0000000000011010
1111111111011110
0000000000011000
1111111111010010
1111111111001100
0000000000111000
0000000000110111
0000000000111010
0000000000100110
0000000000101101
0000000000110100
1111111111010100
1111111111110011
0000000000010110
1111111111010010
0000000000000001
0000000000101101
0000000000111010
0000000000000001
0000000000001101
1111111111011110
1111111111001001
0000000000101011
1111111111111101
0000000000010100
0000000000001111
1111111111100100
1111111111001011
0000000000000001
1111111111011011
1111111111011010
0000000000011010
0000000000001101
0000000000100110
0000000000010101
1111111110110110
0000000000100001
1111111111001100
0000000000110101
0000000000011101
1111111111011000
0000000000010110
1111111111100000
1111111111101001
1111111111100010
0000000001000000
1111111111110000
1111111111001011
1111111111001111
0000000000101001
0000000000010000
1111111111110010
0000000000000011
1111111110111100
0000000000001000
1111111111100110
0000000000000111
1111111111101110
1111111111110000
1111111111110101
1111111111011110
1111111111000110
1111111111001001
1111111111110110
0000000000101000
1111111111010110
1111111111100100
0000000000010110
1111111111111000
0000000000111011
0000000000110001
0000000000000001
0000000000001000
1111111111100000
0000000000100100
0000000000111001
0000000000100111
0000000000101101
0000000000110100
1111111111101011
0000000000110101
1111111111111001
0000000000010011
0000000000000010
1111111111101101
0000000000101011
0000000000000001
0000000000001101
0000000000000110
0000000000111101
1111111111100011
1111111111101011
1111111111011100
0000000000111111
1111111111011000
1111111111100010
0000000000111011
1111111111111001
1111111111101101
0000000000010110
1111111111101101
0000000000111011
0000000000100110
0000000000100111
1111111111001110
1111111111101111
1111111111000010
1111111111000010
1111111111110110
0000000000101100
1111111111010110
1111111111110100
1111111111101110
1111111111011111
1111111111110011
0000000000110001
1111111111101110
1111111111110100
0000000000111001
0000000000111110
1111111111010100
1111111111100001
1111111111011010
1111111111101000
1111111111010011
0000000000010011
0000000000110010
0000000000000000
0000000000100101
0000000000010001
0000000000100000
1111111111011011
0000000000000011
1111111110111100
0000000000010000
1111111111001001
0000000000110000
0000000000011000
0000000000011101
1111111111010001
0000000000001111
0000000000000111
0000000000010000
0000000000011110
1111111111001110
0000000000000000
0000000000000000
0000000000000000
0000000000110011
0000000000000101
1111111111111011
1111111111100011
1111111111000011
1111111111011000
0000000000010101
0000000000001111
1111111111100010
1111111111100011
1111111111100101
0000000000010011
0000000000001100
1111111111011000
0000000000001010
0000000000110100
0000000000001011
0000000000101110
0000000000000000
1111111111110000
1111111111111111
0000000000000100
1111111111100111
0000000000000111
0000000000010000
0000000000100000
1111111111010000
0000000000110101
1111111111100101
1111111111110001
0000000000111110
0000000000000001
1111111111111010
0000000000001011
0000000000101000
0000000000110100
0000000000010100
1111111111000000
0000000000011011
1111111111100000
1111111111001101
0000000000010011
1111111111101101
1111111111010100
1111111111111110
1111111111101100
0000000000101011
0000000000100110
1111111111101011
1111111111011101
1111111110111011
0000000001000010
0000000000110101
0000000000001101
1111111111100100
1111111111111110
1111111111011110
1111111111010000
0000000000101001
0000000000000011
1111111111100010
1111111111101010
0000000000110001
0000000000110100
1111111111000111
0000000000011101
0000000000000000
0000000000010111
1111111111101101
1111111110111111
1111111111110010
0000000000001101
0000000001011101
0000000000010101
0000000000000111
0000000000101100
1111111111100010
1111111111110011
0000000000111010
0000000000111001
0000000000001010
0000000000100110
0000000000100010
1111111111101111
1111111111000011
0000000000101100
1111111111110011
1111111111001100
0000000000011010
1111111111100111
1111111111110011
1111111111000010
0000000000010001
0000000001011110
1111111111101001
0000000000001001
0000000000010001
1111111111101010
0000000000100110
1111111111001101
0000000000100111
1111111111000101
0000000000111111
0000000000101010
0000000000111001
1111111111111110
0000000000010101
0000000000111111
0000000000101010
1111111111100111
1111111110100001
1111111111101110
0000000000100100
0000000000000100
0000000001100110
1111111111010011
1111111111111100
0000000000111011
1111111111000110
1111111111010101
1111111111011010
0000000000010100
1111111111111110
1111111111101101
1111111111100110
0000000000011011
1111111111101110
0000000001000110
0000000000010101
0000000000001001
1111111111111001
1111111111010000
0000000000101100
0000000000100110
1111111111111001
1111111111110111
1111111110110110
1111111111101000
1111111111101111
0000000000111010
1111111111111101
1111111111101110
1111111111111111
0000000000110000
0000000000000011
1111111111100010
0000000000101010
0000000000101000
1111111111110100
0000000000101000
1111111111110100
0000000000000110
0000000000100010
1111111110110011
1111111111000110
1111111111101110
0000000000001011
0000000000100101
1111111111111110
1111111111011001
1111111111100001
0000000000000100
0000000000101100
0000000000110001
1111111111010010
0000000000101101
0000000000010011
0000000000000011
1111111111110111
1111111110110001
1111111111111001
0000000000011110
1111111111100100
1111111111001111
1111111111110001
1111111111011110
0000000000001111
0000000000000110
1111111111000001
0000000000000000
1111111111101000
0000000000011011
0000000000000100
1111111111110101
0000000000110111
1111111111111111
1111111111100110
1111111111101001
1111111111100111
1111111111111101
0000000000000101
0000000000100101
0000000000010111
1111111101111100
1111111111000100
1111111111001101
1111111111110011
1111111111110111
0000000000111010
0000000000001101
0000000000010000
0000000000101110
0000000000101100
1111111111110100
1111111111110011
1111111110110110
1111111111010010
1111111110100001
1111111111001110
1111111111101011
1111111111111100
0000000000110110
1111111111100010
1111111110101111
0000000000001001
1111111111110001
1111111111010000
0000000000010000
0000000000101100
0000000000000011
1111111111001011
1111111111100110
1111111111101111
0000000000010001
1111111111000010
1111111110110101
1111111110110110
1111111111010100
1111111111010010
0000000000100110
0000000000010101
1111111111110001
1111111111100110
0000000000011111
1111111111011101
1111111111101011
1111111111110100
0000000000001100
1111111111000111
1111111111100111
1111111111101001
0000000001001101
0000000000011011
0000000000101010
1111111110110100
1111111110101000
1111111110001010
0000000000011100
0000000000111000
1111111111101001
0000000000100010
0000000000001000
1111111111100011
1111111111011110
0000000000001001
1111111111110000
0000000000100011
1111111111101001
0000000000101101
1111111111000011
0000000000100001
0000000000110110
1111111111100000
0000000000000110
0000000000010000
1111111111111000
1111111110111010
1111111111001011
1111111111100011
1111111111100110
1111111111010000
0000000000010100
0000000000100001
0000000000100010
0000000000001010
0000000000010101
1111111111000001
1111111111100010
0000000000110111
1111111111101100
1111111111111110
1111111111100011
1111111111100110
0000000000011101
1111111111101000
1111111111101001
1111111111111111
0000000000110001
0000000000101011
1111111110111101
0000000000011011
1111111111110011
0000000000010010
0000000001000010
1111111111111111
1111111111100011
1111111111000000
1111111111101101
1111111110111111
1111111111000000
0000000000011111
0000000000111000
0000000000001111
0000000000000101
0000000000111110
1111111111100101
1111111111100000
1111111111011100
1111111111100111
1111111111110111
1111111111101101
1111111111010101
1111111111110101
0000000001000001
0000000000111000
1111111111010000
0000000000101101
1111111111110011
1111111111101111
0000000000001100
0000000000111000
0000000000000010
1111111111110001
1111111111100111
1111111111111101
0000000000110010
1111111111111011
1111111111010011
1111111111010010
0000000000110001
1111111111000011
0000000001000101
1111111111110101
1111111111101110
1111111111110010
0000000000111100
1111111111011101
1111111111001011
1111111111100011
0000000000110110
1111111111111101
1111111111100000
0000000000011010
1111111111000100
0000000000110111
1111111111101110
1111111111011011
0000000000110101
1111111111100000
0000000000111011
0000000000000110
1111111111011110
0000000000101111
0000000000100101
1111111111110100
0000000000110010
1111111111111110
1111111111011010
0000000000010001
1111111111001001
0000000000100111
1111111111010100
1111111111011001
0000000000011100
1111111111101011
0000000000101111
0000000000001000
0000000000111101
1111111111111110
0000000000110101
1111111111110010
0000000000010000
0000000000100111
0000000000001010
0000000000011011
0000000000011000
0000000000011110
1111111111001011
1111111111110100
0000000000000000
1111111111101001
1111111111111101
1111111111001101
0000000000011100
0000000000110010
1111111111100111
1111111111010011
1111111111100100
1111111111101011
0000000000011011
1111111111110100
0000000000100000
1111111111001100
0000000000100001
1111111111011000
0000000000101011
0000000000000000
0000000000000000
0000000000000000
0000000000000000
1111111111010001
1111111111011011
0000000000101000
1111111111101001
1111111111111001
1111111111101101
1111111111011110
0000000000011000
1111111111001011
0000000000101000
0000000000011101
0000000000110100
1111111110111100
1111111111101001
1111111111001100
0000000000011000
1111111111100000
0000000000011011
0000000000000000
0000000000000001
1111111111111100
1111111111011111
1111111111111000
1111111111110110
0000000000011101
1111111110111111
1111111111000111
0000000000100101
1111111111100101
0000000000101001
1111111111100010
1111111111000000
0000000000101100
1111111111111000
1111111111000110
1111111111100001
0000000000101000
1111111111111010
1111111111101001
1111111111101110
1111111111001100
0000000000001000
0000000000101101
0000000000011000
0000000000100000
0000000000100001
1111111111011001
0000000000001100
0000000000011100
0000000000010110
1111111111101010
1111111111111101
0000000000001010
1111111111011001
1111111111011101
1111111111101100
1111111111110011
1111111111011110
1111111111001100
0000000000101011
0000000000100111
1111111110111101
0000000000100101
0000000000000111
1111111111000001
0000000000101111
1111111111000000
1111111111010111
1111111111001001
1111111111000111
0000000000000010
1111111111110000
1111111111100100
0000000000000010
1111111110110110
0000000000010000
1111111111101011
0000000000011101
0000000000100010
1111111111110010
0000000000100010
1111111111001111
1111111111001100
1111111111111011
0000000000010100
0000000000101110
1111111111001001
1111111111011001
1111111110111011
1111111111101001
0000000000010000
0000000000011101
0000000000000000
0000000000101000
1111111110111001
0000000000001110
1111111111100011
0000000000000010
1111111111110010
1111111111000101
1111111111010111
1111111111001011
1111111111001001
0000000000001101
0000000000011001
1111111111100100
0000000000011100
1111111111111110
0000000000001011
1111111111100101
1111111111111111
0000000000110111
1111111111001100
0000000000101010
1111111111001101
0000000000100111
0000000000011001
0000000000000010
1111111111111100
1111111111111100
0000000000000111
1111111110111101
1111111111010100
0000000000001011
1111111111001001
0000000000110000
1111111111010010
0000000000100111
0000000000100100
1111111111010001
0000000000011001
0000000000000111
1111111111101010
0000000000101101
0000000000110001
0000000000100100
0000000000000010
0000000000011011
0000000000110111
0000000000011000
0000000000010110
0000000000001001
1111111111111001
0000000000101101
1111111111101111
1111111111000000
1111111111110011
1111111111111001
0000000000010001
0000000000000100
0000000000001111
0000000001001011
0000000000100110
1111111111101010
0000000000001111
1111111111001011
1111111110111100
0000000000010101
1111111111011010
0000000000001010
1111111110111111
1111111111110110
0000000000001100
0000000000010111
1111111111110000
1111111111011010
0000000000100100
1111111111011110
0000000000101101
0000000000011101
1111111111111001
1111111111110000
1111111111100011
1111111111011110
0000000001001010
0000000000101110
0000000000010111
0000000000010110
1111111111100110
0000000000010010
1111111111001100
1111111111100110
0000000000110111
0000000000010010
0000000000001000
1111111111011100
0000000000101011
0000000000000001
1111111111111000
1111111111001111
1111111111100100
0000000001000011
1111111111111001
1111111111111011
0000000000011010
1111111111101001
1111111111000100
1111111110101111
0000000000110100
1111111111001110
0000000000000001
0000000000001100
1111111111110011
1111111111001001
1111111110111000
0000000000011110
1111111111110101
0000000000110100
1111111111110001
0000000000000101
0000000000011010
0000000000100110
1111111111010001
0000000000001110
1111111111101010
1111111111010101
1111111110111101
1111111111110101
0000000000110110
1111111111001000
1111111111000011
1111111111000010
0000000000111110
0000000000100111
0000000000001001
0000000000100010
0000000000011010
0000000000001110
1111111111110011
1111111110111001
0000000000011111
1111111111001100
1111111111111110
0000000000000101
1111111111101111
1111111111110001
0000000000000011
0000000000001111
0000000000110101
1111111111001011
1111111111100001
0000000000000011
1111111111101010
0000000000110011
1111111110111111
1111111111000110
0000000000100011
1111111111011100
1111111111111110
0000000000010110
1111111111111101
1111111111111111
0000000000011010
1111111111101001
1111111111101011
1111111111111101
0000000000000010
1111111110110110
0000000000000100
0000000000010001
1111111111000011
1111111111100110
0000000000011111
0000000000010001
1111111111010000
0000000000010011
0000000000101010
1111111111111111
1111111111111011
1111111111110101
0000000000010001
1111111111101100
0000000000000111
0000000000101110
0000000000100101
0000000000011010
0000000000000111
1111111110111000
1111111111111010
1111111111010100
1111111111001101
1111111111100000
0000000000000111
1111111111111100
0000000000010100
1111111111100001
1111111111000110
1111111111100011
1111111111101000
1111111110101000
1111111111010011
1111111111011011
1111111111100100
1111111111110111
0000000000000011
1111111111010011
1111111111110010
0000000000000000
0000000000010100
0000000000000010
0000000000000000
1111111111111001
0000000000101110
1111111111111001
1111111111011100
0000000000001011
0000000000010111
0000000000101010
0000000000010101
1111111111001011
0000000000010110
0000000000000010
1111111111001110
0000000001000011
1111111111110011
1111111111011001
1111111110111111
1111111111110001
1111111111011101
1111111111101000
0000000000000011
0000000000100100
0000000000101111
1111111111101101
0000000000100111
1111111111111000
0000000000000111
1111111111000100
1111111110111100
1111111111011011
1111111111001000
0000000000100101
0000000000110011
0000000000010000
0000000000101001
1111111111101011
1111111111110111
0000000000110110
1111111111110011
1111111111010000
1111111111111011
1111111111001101
0000000000011111
0000000000011011
0000000000001100
1111111111001000
1111111111110001
0000000000011000
0000000000001011
1111111111110011
0000000000011111
0000000000100101
1111111110111101
1111111111010111
0000000000100001
1111111111111010
0000000000100011
0000000000010011
0000000000000011
0000000000010001
0000000001000101
0000000000011001
0000000000001101
0000000000100101
0000000000011000
1111111111010000
1111111111000010
1111111110111101
1111111111000000
1111111110111111
0000000000001101
1111111111111101
1111111111100101
0000000000100011
0000000000010010
0000000000100100
0000000000111100
0000000000100100
1111111111110101
0000000000000000
0000000000011111
1111111111011101
0000000000100111
0000000001000110
0000000000101011
0000000000001010
1111111111110001
0000000000010101
1111111111100010
0000000000101001
1111111111010000
0000000000010001
1111111111010100
0000000000001100
1111111111000010
0000000000111000
0000000000000010
0000000000000000
0000000000000000
0000000000000000
1111111111110111
1111111111010110
0000000000010111
0000000000101011
1111111111011101
1111111111001101
0000000000001011
0000000000001000
0000000000000100
0000000000000101
1111111111000110
1111111111100110
0000000000001010
1111111111001011
1111111111011100
0000000000001111
1111111111001001
1111111111111110
0000000000000000
0000000000111011
0000000000011101
0000000000010000
0000000000010010
1111111111110010
1111111111001101
1111111111000100
0000000000110000
1111111110111111
0000000000101101
1111111111101110
0000000000101010
1111111111001101
0000000000000100
0000000000011100
0000000000100011
1111111111111111
0000000000001111
1111111111101111
0000000000001011
1111111111010001
1111111111001100
1111111111110001
1111111111110100
1111111111001010
1111111111011000
1111111111111001
0000000000000000
1111111111010110
1111111111011110
1111111110111111
0000000000010001
0000000000110010
0000000000110000
1111111111001000
0000000000110100
1111111111010111
1111111111011011
0000000000100110
1111111111100011
1111111111010001
0000000000110110
0000000000011111
0000000000000000
1111111111101010
1111111111100110
0000000000000101
1111111111001000
1111111111100001
1111111111100111
1111111111110101
0000000000010010
1111111111101110
1111111111100000
1111111111101100
0000000000100110
0000000000101111
0000000000110000
1111111111100101
0000000000100101
0000000000110010
0000000000111001
0000000000000001
1111111111010100
0000000000101010
0000000000010000
1111111111111001
1111111111101111
0000000000000110
1111111111101110
1111111111110011
0000000000000100
0000000001000000
0000000000011001
1111111111110111
0000000000011111
1111111111100111
1111111111010100
1111111111101100
0000000000000001
0000000000110110
1111111111101000
0000000001000000
1111111111110011
0000000000001101
0000000000000001
0000000000001011
1111111110111110
1111111111110011
0000000000010100
1111111111010101
0000000000100111
0000000000010011
0000000000111010
1111111111110110
1111111111101000
1111111111011101
1111111111001010
1111111111011101
0000000000100101
1111111111111011
1111111111011010
0000000000011100
1111111111111110
1111111111101010
1111111111000100
1111111111101100
1111111111011101
0000000000011000
0000000000001111
0000000001000000
0000000000011111
0000000000011011
0000000000111001
0000000000000001
0000000000000011
1111111110011001
1111111111001101
1111111111010011
0000000000001001
1111111111110000
0000000000111111
1111111111100000
1111111111100010
0000000000011110
1111111111011011
1111111111100111
1111111111101000
0000000000000101
0000000000000010
1111111111101000
0000000001110010
0000000000100111
0000000001111110
0000000001000111
1111111111101011
1111111110111011
1111111110110000
1111111111001100
0000000000110001
1111111111011000
1111111111100000
0000000000011000
0000000000101011
1111111111101011
0000000000000101
0000000000010100
0000000001000111
1111111111110111
1111111111011100
1111111111101101
0000000000100001
0000000000011101
0000000000011110
0000000000110010
1111111111000001
1111111111101110
1111111110111101
1111111111001100
1111111111100101
0000000000010100
1111111111110011
1111111111111101
0000000000000010
1111111111001000
1111111111101111
1111111111011100
1111111111110101
1111111111100001
0000000000100001
0000000000000011
0000000000110011
0000000001011101
1111111111110010
0000000001000101
1111111111111011
1111111111100101
1111111111011100
0000000000000101
1111111111010100
1111111111011001
0000000000101010
0000000000000000
1111111111101011
1111111111001100
1111111110101111
0000000000001001
1111111111010101
1111111111101110
1111111111001000
1111111111001101
1111111111010101
1111111111110100
1111111111111111
0000000000001010
1111111111111001
1111111110101101
0000000000000101
0000000000110010
1111111111110011
0000000000100010
0000000000111101
1111111111100101
0000000000111000
1111111111101110
1111111110011110
1111111111001111
1111111111011100
1111111110010101
1111111111110000
0000000000100011
0000000000100010
0000000000000101
0000000000110101
1111111110110100
1111111111110101
1111111111001101
1111111111100011
1111111111100101
0000000000010001
1111111111011101
0000000000010011
0000000000001001
0000000000110100
1111111111001111
1111111110010100
1111111110001100
1111111110011010
1111111111110011
1111111111011110
0000000000101101
0000000000101010
0000000000001011
0000000000000010
1111111111101100
1111111111100101
1111111111101001
1111111110111110
0000000000100010
0000000000000110
1111111111100011
1111111111011011
0000000000000110
1111111110111101
0000000000000101
1111111110101100
1111111110000101
1111111111001100
1111111111101101
0000000001001010
0000000001011111
0000000000101111
0000000000101000
0000000000101011
0000000000100000
1111111110111111
0000000000011101
1111111111000011
0000000000000000
0000000000011100
1111111111010001
0000000000011111
0000000001000111
0000000000101111
1111111111010000
0000000000001010
1111111111111010
0000000000000111
0000000000110010
1111111111111010
0000000000100010
0000000000101110
0000000000001011
0000000000010101
1111111111101000
1111111111011101
0000000000010110
1111111111110101
1111111111001000
1111111111001011
1111111111011001
0000000000000110
1111111111110100
1111111111010110
1111111111001011
0000000000000011
1111111110111101
1111111110111001
1111111111110110
0000000000001000
0000000001001100
1111111111011110
1111111111100100
0000000000110110
0000000000111001
0000000000110101
1111111111000011
0000000000110011
0000000000001001
0000000000100101
0000000000011101
1111111111101101
1111111111011001
1111111111101000
1111111111011111
1111111111101011
0000000000011100
0000000000011111
0000000000100001
0000000000100101
1111111111011011
1111111111111100
1111111111001101
1111111111001101
0000000000101111
1111111111010101
1111111111110010
0000000000001011
0000000000010101
1111111111001011
1111111111100101
1111111111100101
1111111111110010
1111111111111011
0000000000110010
1111111111001011
0000000000011001
1111111111110101
0000000000000111
0000000001000000
1111111111101000
0000000000110110
1111111111100111
1111111111111010
0000000000011010
0000000000101001
1111111111101011
0000000000110001
0000000000010110
1111111111000110
0000000000011001
1111111111101010
1111111111101000
0000000000011101
0000000000110010
1111111111111110
0000000000000100
0000000000111001
0000000000010001
0000000000110011
1111111111010011
0000000000101010
0000000001000000
0000000000110110
1111111111111110
0000000000011010
0000000000000011
1111111111111010
1111111111011000
1111111111001101
0000000000000000
0000000000010010
0000000000011110
0000000000010110
1111111111000101
0000000000111010
0000000000001110
0000000000101111
0000000000111000
0000000000001110
1111111111101110
1111111111001000
1111111111111101
1111111111110011
0000000000100010
1111111111001110
1111111111000100
0000000000011111
0000000000000000
0000000000000000
0000000000000000
0000000000101101
1111111111010100
1111111111101100
0000000001000001
1111111111001011
1111111111111001
1111111111101110
1111111111001100
1111111111010111
0000000000001101
1111111111010001
1111111111111100
0000000000011011
1111111111001110
1111111111011100
0000000000000110
0000000000000101
0000000000001000
0000000000000000
0000000000101001
0000000000000101
1111111111110101
1111111111101101
0000000000110011
1111111111101010
0000000000001001
1111111111011100
0000000000010111
1111111111111101
0000000000010010
1111111111000110
0000000000000000
1111111111100101
1111111111010101
1111111111111111
1111111111001000
0000000000101111
1111111111111000
0000000000000010
0000000000000000
0000000000101010
0000000000001110
1111111111000010
1111111111100111
0000000000100111
0000000000100011
1111111111001101
1111111111111110
1111111111010000
1111111111010110
1111111111100010
0000000000001111
1111111111111010
0000000000101100
0000000000111101
1111111111010000
0000000000101101
0000000000110110
0000000000001111
0000000000011010
1111111111101001
1111111111100111
1111111111101100
1111111111100001
1111111111010010
1111111110111110
0000000000001011
1111111111110110
0000000000100000
0000000000001011
0000000000001000
0000000000101001
0000000000100101
1111111111101000
1111111111001101
0000000000011101
1111111111001100
1111111111110110
0000000000100000
0000000000001100
0000000001000001
0000000001000000
1111111111001100
1111111111110001
1111111111101110
0000000000100100
1111111111010111
0000000000010000
0000000000011000
0000000000000001
1111111111011001
1111111111110011
1111111111101000
0000000000101101
0000000000000000
1111111111011001
0000000000110010
0000000000100101
0000000000011001
0000000000100100
0000000000110101
0000000000001111
0000000000111011
0000000001000011
0000000000010001
1111111111110010
0000000000111000
1111111111011011
0000000000111001
1111111111111110
0000000000010101
1111111111001010
0000000000110010
0000000000110101
1111111111000110
1111111111011011
0000000000100011
1111111111101010
0000000000010011
0000000000110011
0000000000100000
0000000000111101
1111111111001100
1111111111111110
0000000001000001
1111111111101011
1111111111001101
0000000000110111
1111111111111110
1111111111110111
0000000000100000
1111111111110101
0000000000010111
0000000000101010
0000000000111111
0000000000000101
1111111111000001
1111111111000111
0000000000101100
1111111111100001
0000000000100000
0000000000010110
1111111111101000
1111111111100110
0000000000100101
0000000000110111
1111111111110010
0000000000011001
1111111111111000
0000000000011111
0000000000010011
1111111111100010
0000000000110000
1111111111011111
0000000000111101
1111111111111100
1111111111100010
1111111111010001
0000000000110001
0000000000011110
1111111111010110
0000000000110001
0000000000011110
0000000001001001
0000000000001111
0000000000100101
0000000000000101
0000000000001010
1111111111111100
1111111111101100
1111111111010011
1111111111010000
1111111111111010
1111111111110110
1111111111110111
0000000000100011
1111111111000110
0000000000010000
0000000000110000
1111111111010111
0000000001001000
1111111111100000
0000000000010010
0000000000100110
0000000000111010
1111111111011111
1111111111001100
1111111111110010
1111111111100110
1111111111010100
0000000000001111
1111111111101111
0000000000110111
1111111111001111
0000000000111010
1111111111100010
0000000000111010
1111111111100011
1111111111100011
0000000001000000
0000000000101101
1111111111111101
0000000001001101
0000000000100001
0000000000101100
1111111110111111
1111111110011110
1111111111101100
0000000001000101
0000000000100001
0000000000010000
1111111111101100
1111111111110010
1111111111110100
0000000000011101
0000000000001010
1111111111000011
0000000000000001
0000000000110110
1111111111101100
0000000000010011
1111111111110101
1111111110111110
1111111111100011
1111111111001011
1111111111010000
1111111111101101
0000000000001011
0000000000010010
0000000001011101
0000000000000011
0000000000000010
1111111111010001
1111111111011111
1111111111110000
1111111111010001
0000000000100001
1111111111001100
1111111111001110
1111111111011010
0000000000101100
1111111111100111
0000000000100011
1111111111101011
1111111111001111
1111111111100010
1111111111111011
0000000000010111
1111111111111011
1111111111100011
0000000000100000
0000000001000000
1111111111000100
1111111111111010
0000000000010010
1111111111101010
1111111111001010
0000000000101111
1111111111001101
0000000000001001
1111111111000000
0000000000110000
0000000000000111
1111111111010101
0000000000110100
0000000000110011
1111111111101110
0000000000001101
1111111111110010
0000000001000110
0000000000000011
0000000000001010
1111111111001001
1111111111111110
1111111111010111
1111111111010101
1111111111100011
1111111111010101
1111111111111000
0000000000010100
0000000000011010
1111111111110100
1111111111011010
1111111111101000
1111111111011010
0000000000110000
1111111111000110
1111111111111000
1111111111011111
0000000000101110
0000000000101010
0000000000011011
1111111111010100
0000000000101101
0000000000111000
0000000000101000
1111111111110001
1111111111110011
1111111111110011
1111111111110011
1111111111110010
0000000000010010
1111111111110101
1111111111111110
0000000000010111
1111111111100111
1111111111001100
0000000000110101
1111111111010111
0000000000110110
0000000000110111
0000000000110100
0000000000001000
0000000000110100
0000000000100000
0000000000101000
0000000000011000
0000000000010010
1111111111011000
0000000000010101
0000000000001111
0000000000100111
0000000000000111
1111111111011100
1111111111011101
1111111111001001
0000000000000111
0000000000011110
0000000000011001
1111111111011101
0000000001000000
0000000000011111
0000000000111010
1111111111001010
1111111111100110
0000000000101011
0000000000110100
1111111111011001
0000000000000100
1111111111010011
0000000000001001
0000000000111100
0000000000011101
0000000000000110
1111111111111010
1111111111110011
0000000000001010
1111111111111100
0000000000010011
0000000000100000
1111111111000011
0000000000011101
1111111111101100
0000000000101101
1111111111101100
1111111111000010
1111111111101011
1111111111101010
0000000000101011
1111111111111111
0000000000100111
1111111111010000
1111111111110101
1111111111111010
1111111111000110
1111111111001101
1111111111001111
1111111111011100
1111111111011001
0000000000110111
0000000000010011
1111111111101100
1111111111100111
1111111111111110
0000000000101001
0000000000010101
0000000000100000
0000000000001101
1111111111011110
0000000000000000
1111111111111100
1111111111101011
1111111111111110
0000000000001100
1111111111110101
1111111111010111
0000000000010010
0000000000000111
0000000000010000
1111111111111011
1111111111111110
0000000000011111
0000000000001010
1111111111111010
0000000000000011
0000000000011110
1111111111110001
0000000000000000
0000000000000000
0000000000000000
1111111111101110
0000000000100100
1111111111010011
0000000000100100
0000000000110011
1111111111000010
0000000000010000
0000000000111011
1111111111010001
0000000000000100
1111111111011001
0000000000101111
1111111111100011
1111111111110011
1111111111100101
0000000000001001
0000000000000011
0000000000010100
0000000000000000
1111111111100010
0000000000111101
1111111111011011
0000000000010001
0000000000100010
0000000000001110
0000000000000001
1111111111011111
0000000000110100
1111111111010011
0000000000101111
1111111111010100
0000000000110111
0000000000101110
0000000000000011
0000000000110011
0000000000010100
0000000000000001
1111111111111110
0000000000100011
0000000000000010
0000000000000000
0000000000100000
0000000000101011
0000000000010110
0000000000100101
1111111110111010
1111111111010111
1111111111010101
1111111111001011
0000000000101001
0000000000011000
1111111111001011
0000000000010001
1111111111101100
1111111111011001
1111111111010100
1111111111010000
0000000000011011
0000000000010100
0000000000001001
0000000000100111
1111111111001000
1111111111111111
0000000000000101
1111111111101111
0000000000100011
0000000000111000
0000000000000111
1111111111001011
0000000000110011
0000000000100000
1111111111100110
0000000000100010
1111111111010100
0000000000000011
0000000000011010
0000000000110010
1111111111111111
0000000000000000
0000000000001010
1111111111111000
0000000000001111
1111111111110011
0000000000110001
1111111111111011
0000000000101011
0000000000100101
1111111111110110
1111111111100101
0000000000100111
0000000000011100
0000000000110101
1111111111111100
1111111111101001
0000000000011100
1111111111101010
1111111111110110
0000000000101100
0000000000000111
1111111111110000
1111111111100111
1111111111001110
0000000000010100
0000000000111001
1111111111011100
0000000000011101
0000000000111011
1111111111000111
0000000000010110
0000000000010100
1111111111111011
0000000000100010
0000000000000101
0000000000110001
0000000000000100
1111111111011111
0000000000110010
0000000000111101
1111111111010100
1111111111100011
1111111111010000
1111111111100101
0000000000000110
0000000000001011
0000000000100000
1111111111100010
0000000000110100
0000000000000010
1111111111110010
1111111111001111
0000000000010000
0000000000000100
0000000001001000
0000000000111000
1111111111010000
1111111111101110
1111111111100010
1111111111001001
0000000000000000
0000000000010010
0000000000010100
1111111111001010
0000000000100001
0000000000011110
0000000000110100
0000000000101111
1111111111110111
0000000000011100
0000000000001110
1111111111010001
0000000000010001
0000000000001001
0000000000111101
0000000000011110
0000000000110100
1111111111111001
1111111111100000
0000000000110000
1111111111001000
0000000000000101
0000000000011001
0000000000101100
1111111111011100
1111111111110001
0000000001001110
0000000000000010
0000000000010000
0000000000011010
1111111111100110
0000000000111110
0000000000100001
0000000000000110
1111111111001000
0000000000011111
0000000000000100
0000000000111010
1111111111001110
1111111111001101
0000000000001111
1111111111101011
0000000000010100
1111111111111110
1111111111110110
1111111111110011
0000000000100011
1111111110110001
1111111111001111
1111111110110001
0000000000101001
1111111111101101
0000000000001111
0000000000111100
0000000000100011
0000000000111011
0000000000110000
0000000000000100
1111111111110001
1111111111001111
0000000000000100
1111111111011000
1111111111110001
0000000001000010
0000000001011000
0000000001000110
1111111111110101
1111111111100100
1111111111000001
1111111111111111
0000000000100001
0000000000110111
1111111111101010
1111111111111010
1111111111010101
0000000000001101
0000000000011011
0000000000011111
0000000000001011
1111111111101001
1111111111101001
1111111110111111
1111111111010100
0000000000010010
1111111111101010
1111111111111001
1111111111010010
1111111111000101
1111111111101011
1111111111010010
1111111111101100
1111111111110101
1111111110111011
1111111110010110
1111111110101010
0000000000000011
0000000001000111
0000000000111011
1111111111110110
0000000000100011
0000000000011111
1111111111110100
0000000000010011
0000000001000000
0000000000111011
0000000000101011
0000000000001100
1111111111000000
0000000000010011
0000000000100001
0000000000011101
1111111111000101
1111111110001110
1111111111100111
0000000000011001
1111111111111011
0000000000110101
1111111111110111
1111111111111100
0000000000011000
0000000000101001
1111111111101111
0000000000101010
1111111111100001
0000000000101001
1111111111011100
0000000000010010
0000000000010110
0000000000011000
1111111111101000
1111111111101011
1111111111001101
1111111110011001
1111111111101101
1111111110111011
0000000001000101
0000000000100000
1111111111010111
0000000000011011
0000000000111011
1111111111100011
1111111111110110
1111111111110111
0000000000100100
0000000000011101
0000000001001100
0000000000111101
1111111111111000
0000000000011110
1111111110111101
0000000000000010
1111111110100001
1111111110101010
1111111111010100
1111111111011010
0000000001001110
0000000000001010
0000000000110110
0000000000000111
0000000000000110
1111111111001000
0000000000110101
0000000000100010
0000000000101111
1111111111101101
0000000000100000
0000000001000101
1111111111101010
0000000000111111
0000000000001111
0000000000010110
0000000000010001
1111111111101101
1111111111111111
0000000000100110
0000000001001100
0000000000100100
0000000000010000
0000000000100011
1111111111111101
1111111111000110
0000000000010110
0000000000001100
1111111111110100
0000000000001100
0000000001010100
0000000000100001
0000000001001000
1111111111001101
0000000000011101
0000000000001001
1111111111000100
1111111111010100
0000000000110000
1111111111101011
1111111111011000
0000000000110010
0000000000110101
0000000000111001
0000000000000001
1111111111101000
0000000000011001
0000000000100111
0000000000101011
0000000000000011
0000000000000011
0000000000100100
1111111111101001
0000000000111110
0000000000000111
1111111111001110
0000000000100101
0000000000010001
1111111111011101
1111111111011100
1111111111001100
1111111111100001
1111111111101010
0000000000110100
1111111111110101
0000000000110000
1111111111011100
1111111111010000
0000000000100010
0000000000101000
0000000000010100
0000000000101100
0000000000111100
1111111111001111
0000000000101011
0000000000001000
0000000000000100
1111111111101101
0000000000011000
0000000000110100
0000000000000001
0000000000001011
0000000000001000
1111111111100010
0000000000101101
0000000000111000
0000000000000000
0000000000001100
1111111111011011
1111111111111010
0000000000011010
0000000000100100
0000000000101110
0000000000001100
1111111111000011
0000000000111011
0000000000011010
0000000000101010
0000000000110111
1111111111100001
0000000000101011
0000000000111001
0000000000000110
1111111111110001
0000000000000000
0000000000000000;