0111100011010110,1000000000000000,1100111101010110,0111101111100001,0111111111111111,0100011110110010,1110010100110100,1000000000000000,1010000011001000,1101100010001010,1101010001000000,0001100111000001,1110110000011101,0001100111001101,0010101100001001,1000011110010100,1010011011111010,1001011111001110,0011010001011100,0011111101110000,1000000000000000,1111110101111110,0100110010110011,1001010101001010,0111111111111111,0100011111011100,1000000000000000,0111111100110000,1000000000000000,0101000110110000,0011010110000011,0001001010010010,0111111111111111,1000000000000000,0010011100110100,1111010110011110,1101101001100011,1000100000100000,0111111111111111,0111111111111111,0111111111111111,0011111101011000,1111010011010101,0011000010110000,0001001011011011,1000000000000000,0001111101011111,0001101001111111,0111111111111111,1000000000000000,0001100101101100,1000000000000000,1001000111000101,1000000000000000,0111011011111010,1010001100101111,0110100101100000,0010010010000111,1000111110010111,0111111111111111,1100000101000101,1001000010001010,0111111111111111,0000101110001111,0111111111111111,1000001011001111,0110011010111000,0111101010101001,0101111101010010,1011001000110100,0111111111111111,0010001101001101,0010100101101101,1010010000111011,0100011101000101,1000100011101111,1000000000000000,0111111111111111,1000000000000000,0100001011011111,1110011100110001,1000000000000000,1000000000000000,0111111111111111,1100110000001000,0000001111100010,1000010001011000,0101000110110110,0010010011001001,1000000000000000,1010011100000000,1111000100100011,0111111111111111,1101000010011001,0001001101000101,0011010110011011,0111001111001100,0001011001000010,0000110101101110,0010000011000100,0111100011010110,1000000000000000,1100111101010110,0111101111100001,0111111111111111,0100011110110010,1110010100110100,1000000000000000,1010000011001000,1101100010001010,1101010001000000,0001100111000001,1110110000011101,0001100111001101,0010101100001001,1000011110010100,1010011011111010,1001011111001110,0011010001011100,0011111101110000,1000000000000000,1111110101111110,0100110010110011,1001010101001010,0111111111111111,0100011111011100,1000000000000000,0111111100110000,1000000000000000,0101000110110000,0011010110000011,0001001010010010,0111111111111111,1000000000000000,0010011100110100,1111010110011110,1101101001100011,1000100000100000,0111111111111111,0111111111111111,0111111111111111,0011111101011000,1111010011010101,0011000010110000,0001001011011011,1000000000000000,0001111101011111,0001101001111111,0111111111111111,1000000000000000,0001100101101100,1000000000000000,1001000111000101,1000000000000000,0111011011111010,1010001100101111,0110100101100000,0010010010000111,1000111110010111,0111111111111111,1100000101000101,1001000010001010,0111111111111111,0000101110001111,0111111111111111,1000001011001111,0110011010111000,0111101010101001,0101111101010010,1011001000110100,0111111111111111,0010001101001101,0010100101101101,1010010000111011,0100011101000101,1000100011101111,1000000000000000,0111111111111111,1000000000000000,0100001011011111,1110011100110001,1000000000000000,1000000000000000,0111111111111111,1100110000001000,0000001111100010,1000010001011000,0101000110110110,0010010011001001,1000000000000000,1010011100000000,1111000100100011,0111111111111111,1101000010011001,0001001101000101,0011010110011011,0111001111001100,0001011001000010,0000110101101110,0010000011000100,0000000000000000,0000000000000000,0000000000000000,0000000000000000,0000000000000000,0000000000000000,0000000000000000,0000000000000000,0000000000000000,0000000000000000,0000000000000000,0000000000000000,0000000000000000,0000000000000000,0000000000000000,0000000000000000,0000000000000000,0000000000000000,0000000000000000,0000000000000000,0000010010100101,0000100111010111,0000100001010000,0000110111101100,1111001000100111,0000111111011101,1111110110000110,1110111111100000,1111011011000111,1111011100100100,1111001111010110,0000100000000010,0000111111101010,0000101011101000,0000010110000111,0000011101011000,1111010111101101,0000001011101001,1111000101001101,0000101111110100,1111101100011110,0000100111001111,0000011001111001,1111101100010000,1111011011011000,1111101100011101,1111111010101101,0000000010000000,1111110100100111,0000011111001010,1111001000001001,1111101100100000,1111001000100011,1111101110110101,1111101001100110,1111001100100000,0000001110111100,0000001010110110,0000101100110011,1111110000001001,0000010110100111,0000001111000011,1111011101011010,1111100111111001,0000010111100111,1111001101111011,0000101101110011,0000000101000100,1111010110101110,0000101111111001,1111111111100101,0000110000001111,0000101100101111,1111100100111110,0000000101001001,1111001010010100,1111010000110100,1111100100111010,0000100100000000,1111100011000101,0000001010100100,1111101110111100,0000010010110110,0000111011111000,1111111001001110,1111010000000100,1111001010001111,1111100011111010,1111101001110100,0000101110111001,0000000100110000,0000000110101110,1110111011100010,1111100010111110,0000100011111100,0000001000111110,0000101111000010,1111111100011110,1111111001101100,0000110011111111,0000010001011000,0000110001011001,0000010001101010,1111001111100011,1111100100010110,1111100001101010,1111101110111000,1111110110110111,0000101110010110,0000011100000100,0000000110010111,0000000111001001,1111110111000110,0000010111000011,0000010001011001,0000011111000110,0000110010010110,1111001111110101,0000001001101111,1111011111000010,0000101011101111,0000110111101011,0000111011001101,1111000101110001,0000000100101101,1111101100110011,1111010001101000,1111101011110100,1111000101101011,1111100010111101,0000110000011110,0000101000100000,1111011000100110,0000111001100111,0000110111010001,1111000010011010,1111101110011111,0000100110110010,1111000001100000,1111100111100000,1111011111010001,0000101100010000,0000010011001111,1111010000000001,1111010011100110,1111101101111100,1111011001010000,0001000010110001,1111001110101001,1111100100111101,1110111101101110,0000110011011110,0000101011110011,1111011001110001,1111101110011100,0000000110000100,0000010010111100,1111010101010001,1111010100101100,1111011101010001,0000101001000110,0000001101101001,1111101011100001,0000010101011110,1111001101110110,1110111100100001,0000001110011010,1111111000110011,1111110011010101,1111101010111101,1111111111000111,1111100100110110,1111001000010001,0000110101000000,1111111110111100,1111011011010000,0000110001011111,1111010011110111,0000000010010010,1111011001000101,0001000001110101,0000110000101110,1111101100010001,1111010110011100,0000011010100101,0000100110111111,1111110100111111,0000011110000110,0000101110100000,1111111111110011,0000000000000000,0000000000000000,0000000000000000,0000000000000000,0000000000000000,0000000000000000,0000000000000000,0000000000000000,0000000000000000,0000000000000000,0000101010100100,1111110111111101,0000001111110001,0000110000010100,0000111001101100,1111011001101101,0000000110011110,0000010011000111,1111011111001111,1111101111101110,1111100000111001,1111111100001010,0000100011110110,1111100001110011,0000101111111101,1111111110111011,0000111000011111,0000000100101000,1111101100110010,0000011111001110,0000011011010111,0000110100100001,1111011001011110,0000100011010101,1111010101100110,0000100001110011,1111011010000111,0000000111000011,0000100100100101,0000010001110101,1111100110110100,1111101100111111,1111111000101100,0000110110100000,1111100100010001,0000010111011001,1111000010100111,0000011010011010,1111011100111101,1111111011011000,0000001110111101,1111011110001111,1111110011100110,0000110011111100,1111101110000001,1111010000001100,0000000111010010,1111010001101001,0000010011110011,1111100111011011,0000011101000101,1111000110011001,1111011001000111,0000001011001000,0000111111010100,0000000010010101,1111011001110110,1110111010111100,0000001100100001,1110111101010001,0000111101110100,1111110100100000,0000011011001001,0000110001111001,0000010110111010,1111111000100111,0000011101110111,1111111101100000,0000011001100011,0000000010011100,0000111010001010,0000101001110111,1111100111110100,1111010111101000,1111101001101011,1111001110011100,1110111110010110,0000011010000011,1111100011000110,0000011101101110,0000101100001010,1111010111100011,1111101100111001,0000101010011111,0000001111011011,1111100100101000,0000110000111110,1111111000110111,0000101100011110,0000011111111001,0000001100011010,1111110010000111,1111010100100101,0000100100101100,0000111101100001,0000001010001001,1111010010010111,1111111001110000,1111100011101100,1111101010101001,1111011111110000,0000011101011110,1111101011100010,1111111011111001,0000011011000010,1111011001100111,0000101110001011,0000010010100011,0000010010101100,1111111111001111,1111100010011000,0000101000100001,1111110110001000,1111110101101011,0000100000110010,0000011010010000,0000110110000010,0000000010101101,1111011010001110,1111001100011110,1111011001111101,1111000111001011,1111100000011111,0000011100110110,1111110000101100,1111001001010100,1110111110000111,0000000111100111,0000100100011100,1111000011100001,1111110011111101,1111111011100000,1111010111001000,0000010100011111,0000100111111000,0000011100011110,0000110000011010,0000000101000100,0000001111011000,0000110101101101,1111001111011011,1111001001011111,0000101000001000,1111110011000110,0000010111000110,1111111100011001,0000111001001111,0000011110010001,1111100110100111,1111101101010111,1111110101000011,0000011101111011,1110110101100100,0000100100100000,1111000010110101,1111001011001111,1111110100101100,0000011110100011,0000101001010111,0000110000011000,1111011110100000,0000100111000001,1111010000010110,1111001000000001,0000111100000101,1111010000111011,1111011000100000,1110111010110010,1111011000001011,0000001110100001,1111000100110110,0000101000001110,1111010111001111,1111101111101000,0000010111100000,0000111000111001,1111100010000111,0000110101010111,0000101010011101,1111000101000010,1111010110000111,1111011110010010,1111011001101001,0000101011101110,1111001001101011,0000110001000011,1111010100111111,1111111110111000,1111011110110110,0000001100111001,0000001001000010,1111101001111000,0000110010011010,1111000001000101,1111100001011000,0000110011000010,0000101100100000,1111010100010000,0000110011101000,1111111001100110,1111111100100010,0000100000010010,0000010111011101,0000111100010011,0000000100110001,0000001010110101,1111110100001100,0001000111001011,0000101010101011,1111010110011010,0000010011000001,0000101001001111,0000000000000000,0000100000100000,0000011111001100,1111010110001100,0000001011001011,0000101011010000,1111101110011111,1111111001011011,1111011011111110,0000100001001001,1111110110001000,0000110111100110,0000001111110111,1111101110010000,1111011110101100,1111001101010010,0000001010111001,1111100010100100,0000010000000100,1111000100111001,0000100001010100,1111011000001000,0000011011111000,1111010100011001,1111110110000101,0000010100110001,0000001000101101,0000001010010000,0001000001111110,1111011101010101,0000000001011110,0000011101111010,0000101100011110,0000010100100001,0000110001011011,1110110111011101,1111001111000010,0000000011010010,1111101110101001,0000001001000111,1111000111101000,0000001010001000,0000101111001010,1111010000100111,1111101010010100,1111000011011011,1111010011010011,0000001010101011,0000111010011100,0000010110111010,1110110011010000,1111110111100101,0000000110101100,1111110001101010,1111000010111001,0000001011011000,0000001100111101,1111101110110000,1111111001101010,1111110110111101,1110110100110101,1111010000110111,1111110100010101,1111101101010111,0000111010010011,0000011111111010,0000101010110001,0000110010000000,1111110101111100,1111100010010000,1110110000001000,0000010000111010,1111101010101100,1111110110110001,0000010011101111,1111001111010101,1111001110010010,0000111001010011,0000101011000010,0000100010001110,1110111010101100,1111010111111110,0000101101111100,0000111001100111,1111100011000001,1111010111010110,1111110010010001,1111110110010001,1111000100100111,0000110001010110,0000001100101000,0000010001001110,0001000001010101,1111011100100010,1111111110010010,1111110010010011,1111010110001110,0000001111000101,1111110001100111,0000010001010101,1111111110010101,1111100100100001,0000101111010010,0000100101110110,0000111010101001,1111111101100011,1111110000111001,1111010100010011,0000111001011100,0000010100100101,0000010000100111,1111011111010010,1111100000100101,0000101001001110,0000100010000100,0000100101001101,1111011110100101,0000110001010101,0000100111001000,0000101011101111,1110111111101000,1111110011001100,0000101011110011,0000100100011101,1111100000001001,1111100001010100,1110111111000110,0000001101000011,1111110110110101,1111011011000010,1111010000101100,1111100000101111,1110111101000100,1111001001110101,0000011001101001,0000000100011010,0000101010101001,0000010100100100,1111111001110111,1111101110011110,1110110111011110,1111101010101110,1111110001100001,1111100111011100,1111010001010101,1111000010100010,1110111100010111,0000100100100000,1111101000101000,0000010101011111,1111110000100101,1111110001000110,1111011001010110,1111100100000010,1111000111000011,0000011010101111,1111100010011011,1111000101111011,1111101110110110,0000101001000110,1111011001000111,1111110110000001,1111111010101010,0000000100111110,0000100000000011,1111000101110011,0000011111000111,0000110111011101,0000100001100111,1111010011111111,1111001111110101,1111101101100110,1111101101011100,0000010001010100,0000100110001100,0000011101001001,0000011001010100,1111111000111101,1111110010000100,0000000110010101,0000000000010011,1111001101010111,0000110101111010,1111111110011110,1111001001001101,1111100000100101,0000001001110000,0000000111111000,0000011101101110,0000011000110001,0000100100111110,0000001010000111,1111100110001110,0000011011001010,0000001011010001,0000001000010000,1111001100110110,0000110100001001,1111010110101111,0000011100111010,1110111100101111,0000100000011000,1111101100111010,1111111111110010,1111000011110110,1111011110111000,0000100001001101,0000110000010101,0000100101110111,1111010000001111,1111100000101111,0000110000010111,1111001111110010,0000110010010000,1111111000001101,0000101100000001,0000001001001011,1111111101000100,0000110010101101,1111010100000100,1111010100110100,1111010100111010,0000100001011110,0000001101110001,0000000110000111,0000010000100010,1111010100001001,0000110110011011,1111010101101001,0000101011011010,1110111110101011,0000101101001110,0000001011110100,0000011101001111,0000001110100001,0000101011011010,1111010101011001,1111001010100001,1111001011011101,0000101111011110,0000101011000111,0000110111101100,0000010110100001,1111000001111001,0000001000111011,1111101000110100,1111111101100000,1111100100010110,0000110001111010,1111001001110101,0000001111010100,0000010100101000,1111110111101001,0000110011000001,1111101101011111,1111110010011101,0000001100110101,0000111001000101,1111000011011101,0000010001110001,1111111110001010,1111110101000110,1111111111010001,1111111110010011,1111010110101101,1111011010101000,1111010000101111,1111101100001100,0000100101111101,1111110111001000,1111110000100110,1111001000011011,0000110011111000,1111101101110100,1111101011011010,1111111111111011,0001000111011000,1111111000111001,0000010111111100,0000100111011011,1110101011101111,1111110000011011,0001000101111111,0000011010011101,0000111010000101,0000001101111100,0000110011011100,0000111100101010,0000010011101101,1111011001001010,1111000010101100,1111110100000101,1111011000010001,1111101001000101,1111011101100000,1111000100001011,0000010000011000,1111100101111110,1111010010001101,1111011101000001,0000001010111110,1111100111101111,0000010100111000,1111000110001011,0000100010110111,1111110100111010,0000110000100110,1111000000100111,0000000010101110,0000110000010110,0000000100011011,0000001001000101,1111110101001110,1111110000010001,1111111011110010,1111110010010010,1110111010010001,0000110011100111,1110111111001001,0000001100111111,1111111011101100,0000110101010001,0000000110010111,1110101000111111,0000010010011101,0000010110010101,1110100001111011,1111111110111100,1111001111111100,0001000010100100,1111101111111111,0001011100001011,1111011100111100,1111111101010000,1111100001100100,1111111011001100,1111111111101001,0000101001000100,0000000111010000,0000000010011000,0000100110110001,0000100011001110,0000011001011000,1111101011110101,1111100111000101,1111010111110111,1111111111111111,0000011011011000,1111101100000111,0000011011101111,1111101010101101,1111110111100010,1111001011110111,1111001001110111,0000101101111111,0000100011011111,1111100010101101,1111110111100101,0000011011011000,1111001101011110,1111001111000000,1111110001100001,1111010101001011,0000111010101000,1111011111001011,1110111101101100,1110111100001000,1111110100111110,0000101010000011,1110111111111111,1111000010100110,1111011100100111,0000111000001001,0001000010000101,0000111001000101,0000100011101010,1111011101101011,1111100000000010,1111110000011010,0000101000010111,0000100110011010,0000010000001111,1111100101111101,1111010001011011,1111011011010111,0000001101011111,0000011001101010,1111111111101100,0000100101101001,0000000010000111,1111110101101111,0000001010010110,0000010111011011,1110111110001111,1111001111110100,1111010011011100,1111000110111000,1111010000010101,0000111111001011,1111001010110110,1111110000000001,0000111000100111,0000000010010110,1111100001011101,0000110111110110,0000110011010001,0000011000111001,1111000100111100,1111011111010110,1111000100001111,1111110000011010,0000110111110010,0000001000011100,1111111111101100,0000000100011110,1111010000110011,0000011001011000,1111100001000111,0000001110100100,1111101010100111,1111000110111001,1111010001111101,0000011010001011,0000011111000110,1111100010000111,1111000110001000,1111000100100010,0000101111100110,1111011011111010,0000011110000101,1111101111010011,0000100011001010,1111100110010010,1111100001101010,0000010101000100,0000010100011100,0000010010101000,0000001110111110,0000011000100110,0000101000011110,0000000100000011,1110111100001110,1111011111000101,0000000110111001,1111001111101110,0000101101101110,1111110011011001,0001010001010010,1110110111110010,0000000110010001,0000001100011010,1111011001100111,0000001000110100,0000010101111111,0000111001010110,0000001010110000,1111000000010010,0000111101001011,1111111010001100,1111001010110110,1111100011100101,1111000000110000,1111110000010011,0000111111101010,1111111111001111,1111011001010101,0001000010011001,0000011000001001,0000000100101010,0000101010100111,1111111000101100,0000101110101000,0001000010001110,0000000101011010,0000101111010001,1111001001001111,0000101011100101,1111100011110011,0000011110101110,0000000001111100,1111100000000111,1111111100111000,0000001011011010,0000101011000011,1111110000101111,0000011100111011,0001011001101100,0000110011101001,0001001011100011,1111100100011000,1111010001101110,0000000111110110,1110101110111011,0000011111001001,1111011000001011,1111011101110101,0001100010011000,1111100011000100,1111111111101010,0001010100011010,1111101011010100,0000101100011000,1111111010011001,0000010011100111,1110100001101010,1110111011011110,0000111000100101,1110111001001010,0000100000010101,0001101110101010,0000101110110001,0000010001110011,1111101101101001,1111111011111101,1110101010010010,1111101110000100,1111001101110000,0000010100000101,1110111011100011,0000011111111101,0000011010100000,0000011010101001,1111110111111111,1111100010101001,0000011101101000,0001110111001111,1111011001000101,1111111000011000,1111100111110110,0000101110100110,0001111011000100,1111010101110010,0000010010101110,1111001001011110,1111110100010101,0001011111100000,1111011000100110,0000010010011111,1111101001001111,0000000000000101,0001001010101110,0000110001000000,0000001000000111,1111111011010010,0000001001000111,0000100100000000,1111001111111000,0001000001110100,1110111110101000,1111110101100010,1111010101100110,0001000110011111,1111110111100011,0000101110001000,1111101000000011,0000111000010101,1111110011101100,0000111111101001,0000001000101010,0000000110100100,1111010000110000,0001001000101111,1111001010011100,1111101000111001,1111101100110010,1111101010110000,1111100111011101,0000110000100110,0000100000101010,1111001110010000,0000011110100100,1111100111101001,1111010101011001,1111101110011111,1111011111001110,1111101011100100,0000001000100011,1111101000001110,0000001111001010,1111100111011000,0000000111100000,1111100111000011,1111111101110100,1111100101010010,1111110000110101,0000000010110110,1111010000010110,1111001101011110,1111011000101011,1111001001001011,0000001011001010,0000000110001010,0000100000111010,1111111000111110,0000000010010011,1111011010011001,0000010000100001,0000101110001100,0000010010000000,0000110010111011,1110111000011101,1111111010100010,1111110111001011,0000100001101011,0000001110010000,0000110010010010,1111101000001011,1111111110101101,1111000111001110,1111011110001000,1111110101111011,1111111101100010,1111100100110010,1111010111011111,1111100011000011,0000100000000001,0000010011001100,1111010101100101,1111111000011110,0000111111101001,0000001011101000,1111001011101001,0000001101001100,1111111011001000,1111100111010001,1111011111010111,1111110111010000,0000011010101110,1111001000110001,1111110101101010,1111110111010001,0000100000100110,0000011010011010,1111011111000000,1111000110011000,0000000011110100,1110100000001011,0000100110101101,1111111111011010,1111000001110001,0000010110000011,1111100111101001,1111100100110011,0000011110000011,0000010111101010,1111101001111100,1111010111001111,0000101110011010,1110110100101001,1111010010011100,0000100111000010,1111100011100101,0000011001100111,0000100111100010,0001001101000100,0001001101011101,0000011101100010,0000000001010101,0000000010011111,1111110111110111,0000100001011100,1111110001100100,0000010111000000,0000110100100001,0000100011101010,1111010011000110,0001101110010010,0000110110100101,0001010110100011,0000011001011001,1111011111001110,1111111110101111,1111010101010111,1111111001111011,0001000000100001,1111011110101000,0000101111100011,0000001010101011,0000111101111100,0001010111101101,1110101010010001,1111010110111100,0000110011011100,0000101010001100,1111111001110010,1111110011010001,0001000010011001,1111101111110100,0001010100111110,0001000010001010,0000001010100010,0000100100011111,1110101000101111,1110110101001101,1111010011111100,1111000110011011,0000110010011011,1110011100010011,1111111100010000,0001100010110100,1111001001011010,0000001010110111,1111001010000101,1111101101001101,1101111110111101,0000000011111001,1111111011111111,1111101101111100,1111111010110100,1111110110111011,0000100011111000,1111101100101110,1111000001101110,1111101110101110,1110100111101110,0000010100110101,0000100110101110,1111010010001100,1111011000110101,0001010010010010,0010001100111111,1111111100001100,1111110100100101,1111110001111100,1111011111001111,0001010101011000,1111100001000011,1111001110100010,1111101111001100,0001101001110010,0001100100100000,1111010001010110,1111010010001010,0000011111000011,0001011001011010,0001100101000101,1110101111011111,0000111000010110,1111100011010000,1111101101011111,0001101100000010,1111110011000111,0000100110011100,0000011111000001,1111101011001111,0001010111010100,0000010010100000,0000000101110000,1111101011101100,0000001010001011,0000111001111000,0000000110100010,0000011110000111,1111011111000000,1111010101101010,0000001001111101,1110101100100000,0000010101001010,0000100110101001,1111001001011100,1111011011111000,1111110111111110,1111000100001101,0000001111010111,0000100000010001,1110111110001000,1111101101100101,1111111110000000,1111011000010000,1111101101110010,1111010101010101,1111111101100011,1111101001000110,1111010100111011,0000000100000100,1111011000101010,1111000110001101,0000011111000000,0000111111011001,1111000110111010,1111010100011101,1111111101110011,1111111000110100,0000111110011010,0000010011110101,0000010001011010,0000010011101111,1110111110110000,0000011001011001,1111100100111011,1111000110000101,1111001100000001,0000101010101000,1111100110111001,1111111000011011,1111101001011111,1111100110001100,1111011100001010,0000100100000100,1111000000111111,0000011000101011,1111100100101110,0000011100110111,0000000100110010,1111010101101000,1111001111010100,1111101110011010,0000110110111101,1111010101001001,0000100010010001,0000100000001101,1111111111101100,0000001010010110,1111101101111011,1111011011111100,0000011011000000,1111010000011001,1111010001001011,1111101110101000,1111111010111111,0000011101001110,0000000001001000,0000110001111100,1110010111111100,0000101101000010,1111100100110100,0000001000010001,1110111111111101,0000100010111000,0000011001001000,1111101110000000,0000100010001010,0000111011110000,1101111110010010,0000010101010101,0000100011010111,1110011111111001,0000010000100101,0000001110000000,1111011001010000,0000001100101001,1111101000111111,0001001101111001,0000000110010000,1111111101010010,0001010010010111,1111111001000010,0000010101001101,1111110100101110,1110011101011101,0000001110111101,1110001111111010,1111011100011000,0001101000111111,0000010011101011,1111101000001010,1111111100011101,0000010101000111,0000111000001010,1111101111111010,0000110101000011,1111111100000010,0000111100111001,0001111100110001,0000000011001110,1111010111001101,0001000110010010,0000011011011101,0000100000010100,0000000111010100,1111011001011000,0000010010000111,1111111101001010,1111111010011101,0001001010010000,1111110111000000,0001101101001100,1111100111001000,0001110000111000,0000011101101010,1111000000001111,0000011000100100,1111001010110001,0000111101000100,0001001001010111,1111010010011101,0010000001000000,1111101100101010,0001011010100100,0001110110100110,0000101111001011,0000110010101001,1110101000010011,1111100111010000,0000011001111011,1111111010010100,0001100000100110,0000000110011101,0001001001001001,0000100100011100,0000001011100011,0000000001111111,1111001110011100,1111000101000100,1101111111111000,1111010110100001,0000001011110001,1111011110111110,1111011000111100,0000100000100011,0000001010100100,1111000001000100,0000010010101100,0000001101001000,1101101011100011,1110011110100100,0000001011001111,1110110010000110,1111010000001011,0000000111100100,0000101111100011,1111010011111001,1111100011100110,1111011011001010,1111000101001100,1111110111101010,1111100101110101,1111000100111001,1111001010111001,1111101110111111,0001101000100001,1111101101000010,1111110001010111,0000101011110110,1111000001000011,0001011001100101,1111110111010101,1111010010001001,0000101100100001,0000100001000100,0001000011011111,1111101111101011,0000000001111110,0000110010001111,0000001110111011,0000110100000111,0000001101101001,1111111011011101,0000000011101011,0000010010010100,0000001010011011,0000100110011110,1111010010001011,1111101011000000,1111100001000110,0001001111101011,0000101001000110,1111111000000000,0000110001101101,1111100011110001,1111011110110100,0000000010100000,1110111111011010,0000010101101101,0001000010000110,1111011001011101,0000000000001011,0001000111110110,1111010010100000,1110111111111100,1111010110101001,0000111101000001,0000110100111110,1111001010101000,0001001000100101,1111111101101101,1111001111010010,0001001110000110,1111100001111101,0000000110101100,1111101100010000,1111111000011110,1111011111010110,1111010001001100,1111010010001101,0000000110000011,0000011011010000,0000101000000111,1111100111010110,1111000011110001,0000000010100111,1111011011010001,0000101110001100,1111101000010111,1111011010010100,1111111101100001,1111100011101110,1110111110111111,0001001010000110,0000011111111101,0000110001100111,0000101001001011,1111011011110111,1111010011111110,0000001101100001,0000000110101000,1111111100001001,1111001100101010,1111011001101110,0000001001110101,1111111101101101,0000011011101011,0000000101001010,1110111101001010,0000100100011010,1111001001111101,1111110100101011,0000000000111001,0000000001001100,0000101100100000,0000100110000011,1111111000011011,1111011110110000,1111010111111111,0000000101010101,0000001011101111,1111011110011111,0000010000011010,1111011110010010,0000101011100010,0000110101001100,0000010001111101,1111110111100000,1110111001110010,0000010101011010,1111111000001011,1111100000111010,1111110101000110,1110111110001001,1111111011011011,0000101011111110,1111110011111000,1111110010001110,0000001101000010,0001000001100011,0000001110101101,1111000100011110,1111100100010111,1110001101110000,1111010011110000,0000010101100010,1111011000101111,0000101110101000,0001001100010000,0001000001101111,0000110100000011,1111110000011101,1111101110110000,0000001010010101,1111111100010000,1111101110111011,0000000101100001,0001000001111000,0000000101101111,0001001111001110,1110110000111111,0000011100011011,1111111001110011,0001001100011001,0000011110001011,0000100010000110,0000011110100111,0000011010001010,0000011111101000,0001100000111110,1111011000101101,0001110101010010,1110100110011101,0001100100101011,0001000101110100,0001001001000001,1111100101110111,1110100100011011,1111111001000010,0000011101001001,1111001100110000,0001000101101000,1110101010101001,1111100110101110,0000101000110000,0000101110101110,0001000000100001,1110110100100110,1111111110001000,0000000000000000,1111111011100111,1111101010100011,1111011110010000,0000010010011010,0000110001000110,0001110001001101,1111101001111000,0000000100010000,1111110011110001,0000000000100011,1111011011110110,0000010100011101,1111100101110110,1110100011001100,1110010110001101,0001000011111011,1111001000100001,1110101000101011,0000000010111000,1110101001010010,1111011111101111,0001101101001000,1111001011110110,1110110010000001,1110101000010011,0000100010011100,1110000100101010,1111000101111011,0001011100110000,1110000100110101,1111011111110100,0000000111110101,1111100111100101,0000111010111101,1111001000010001,0001101101101011,1111111001100011,1111100111111100,0001110100000111,1111000010000110,0000111001110011,1111100010010100,1111010101000111,1111101100001001,0000101001010010,1111111101011101,0000100110101101,0000000111000000,0000100001101101,1111011001111001,0001011111110110,1110111100111111,0000000011011110,0000011010000010,0000010001010100,0000011011001001,1111011101000000,1111111110010111,0001000000001100,1111001011101001,0000110110110011,1111100100101011,0000101100110010,1111110111101100,1111000110110000,0000101011101001,1111010111111111,1111000001111101,0000011011001110,0000101001011110,1111111010010110,1111010000010010,0000010000101010,1110101010011000,1111111100011010,1111111010101001,0000001100001111,1111111010111100,1111110110011010,1111100111110110,1111011111101100,1111011110011011,1111101010011001,1111110010001010,1111011000001000,1111001111100100,1110110110010001,1111011101000011,0000000100101011,1111010000000011,1111100010100010,1111111001110100,0000000000101011,0000001010111010,1111100111100100,1111010001011000,1111010101011100,0000000101010011,1111101111110101,0000001100001110,0000011101000011,0000101000110100,0000010010001011,1111100111011010,1111111001000111,1111111000100101,1111111110000111,1111001110000100,1111110100000100,0000011111100110,1111010011111011,1111011011001111,1111111100001010,1111010000111100,0000101001110011,0000010110010011,0000011010110111,1111101100101001,1110101000100011,1111011000110100,0000011010110010,1111001101101001,0000110001110001,1110011000010001,0000111001001101,1111100000100110,0000000100101001,0000010000111111,1110011001011110,0000001110000000,0001011010111010,1111011000000111,0000001101010110,1111111011100011,0000010010110111,0000110101110001,0000100110111010,0000001000011110,1110100100010101,0000111110011100,0001000000011010,1111101100001011,1111111111010001,1110100100110000,0000010010000111,0000111010101000,1111111001111011,0001000001101100,0000111001100101,0000000100000010,1111110001001100,1111000011110011,0001000110001100,1110111010001111,0000110000101011,1111100100110110,1111110100000000,0000000011011001,0001101011001111,0000100110001100,1111111110110011,0000010011000101,1111001000011000,0000110111000010,0000000011000101,1111101010010101,1111010000001101,1111111111010011,0000111000100111,0000110101101011,0000000001111010,0001010100100101,0000001011010110,0000100010001110,0000110001001011,0000110010010010,1111111011110100,1110011000101011,0000110011101011,0000110110101101,1111000111011001,0010001001101010,0000000000111000,0000110111110111,0000100011001110,0001011101001000,1111111101110100,1110101011110110,0000000101111000,0010110110001101,0000001101100001,0001101110011010,1111011110011110,1111010111100111,0001000000011001,0010011111100110,1111001100111100,1110110000011101,1110111110001100,0001011100100111,0000001000000010,0000100010111001,0000100110100011,1111101101100111,1111011001101010,0001011010011111,1110110001110001,0000001001010101,1110111000101110,1111000011100111,0000000110111010,0001010010010110,1110100111100010,1111001111011110,1111101000100111,1111000000100001,1111001100010100,0000101001010110,1111111100110000,1110011010111100,0000001111110111,0000111100110101,1111010110011000,0000000111100100,1111111011010010,1111111111110011,1111101110000001,1110110000000000,1111110110000011,1101101000011101,1111011011011110,0000000100111110,1111110000001010,0000101010011111,1110111011010111,0000110000101000,0000010011110000,1111110101000100,0001000111111000,1101100001111011,1111111010000110,1110010110101001,1110101110011010,0000011001000000,1111110111100010,0000101000110011,1111110000111001,1111110001110100,0000111011011010,1111001001110011,0000011110111000,1110110010011000,0000100000111011,1111101101001100,1111100011111100,0001011001010110,1111001011010000,1111001100001110,0001011011000111,0000011110001011,0000111101100110,0000101101101110,0001001110001101,1111110110100100,1111100011100110,0000010101101111,0000110111110011,0001000011010101,0000000000101001,0000101100000001,0000001100000111,0000010110011011,0000110001000010,1111100010101111,0000000100000101,1110111001010000,0000000101001111,1111100011101000,0000010111111110,0000001100000000,1111001001101111,1110100110000001,1111101110111101,0000111001111000,0000001001101101,0000011100001000,0000001100100010,1111111101001100,0000011101011101,1111111010110101,1111100111000111,1111100001111100,0000101111101100,0000111011011110,1111110111100110,1111101001110111,0000000101110000,0000100011110011,1111001110010110,1111110111000111,0000011010100010,0000011110000101,0000010001000011,0000011111111111,1111110000011100,1111010110001000,0000110111001111,0000000110000001,0000100011001010,0000011001111110,0000000001000110,1111101111101111,0000001001011100,1111100110011101,1111001110111110,0000101001011100,1111100001011000,1111011111100011,1111111000111100,1111100000111101,1111000110010110,1110110110000101,1111101110001110,1111000110101100,0000110010101111,0000001010011111,1111110101111110,0001001100100010,1110011110100000,1111001010011000,0000111011011100,1110101111011110,0000001110000111,1110110100001110,1111001010101100,0000100010101011,0000010111001101,1111111111101110,1111111101111110,0000000111001000,0001011001111111,1111001101011100,0000110101111100,1111000000100001,1111110001001001,1111101100100010,0010001100000010,0000110001101000,0000010001100001,0000011010000101,1111101110011111,0000001111110000,1111100001101110,1101111000010000,0001000111011100,1111100111111010,0001000101111111,0000000010001011,0000010010001000,0000001101001111,1111001100110100,0000011100110010,0000000111001011,1111101011111100,1111000011111001,1111111111000001,1111011100101110,1111111101011001,0010010011011011,1111111011001011,1111101101100110,0001010000010100,1111010110111111,0001010100010010,1110101010101111,0001011010000011,1111001000111110,1111101110000111,1111110101101011,0001111010101011,1111100001010000,0001010011110100,0000101111000011,1111111001101100,1111101101001000,0000101000110111,0000011101000100,1111110101010110,1111101110101011,0000110110001011,0000001110001010,0001010001110001,1111100010101010,0000001111001010,0000100101000000,0000001100000111,1111010001110111,0000010010101101,1111000010000111,0000101010011010,0001011011110010,0010001100110101,1111110010010101,1111001111100010,1111110010001010,1111011100100101,1111001101111100,0000011010110010,1111110111101111,1111001100100011,0001010110010001,0000100010000111,1110011000111111,0000000100111100,1110111011101000,1111100110001000,1110101110011010,0001000110111011,1111000011101111,1110000110001000,0000001110110111,0001111111111001,1110100110010100,1111010100101110,1110101100111111,0000001011100110,1111110000110110,0000101110110110,0000001101101010,1111001101011100,0000011011001101,0000010001000011,1111111010000100,0000111111100011,1111010111011001,0000111101110101,1111001001110110,1110111010100011,1111110111111101,1110100110101100,1110111111001111,1111100010010011,1111010011111001,0000101110100111,1110110000101000,0000110011010111,1111010111010011,1110100100111011,1111110111011101,1111101000111011,0000011100110100,0000010111000110,1111110011110010,1111100101011110,1111010101110101,0000101111011110,0000010100011010,0000000010010011,0000101111010011,0000111010111111,0001111111110111,1111110101011101,0000000001100001,1111011111101110,1110101101001101,0000110111011001,0000001001100100,1111011000000000,0000100000010100,0000011110100101,0001001011100110,1111111110100101,0001001101010010,0000000111110101,1111010101001010,1111011000010110,0001010110100011,1111100000100110,1111100010110001,0001001011100011,1110101010110010,1111110101111010,0000110111100110,1111001011100100,0000101011010000,1111000101011010,1111010111011000,1111111100111001,1111110001101111,0000010100101101,1111111011011111,0000010100111101,1111001011000110,1111101100000100,0000110010111110,0000100011100000,0000001010100011,0000000011110101,0000101100100100,0000100011100100,1111001101100101,0000010001010001,0000011110101000,0000100000110100,1110110001110000,1111011101101000,1111110101101010,1111011100000000,0000110100111101,0000011110110001,1111111101001100,0000010110001011,0000110000100001,1111010000100011,1111010111011000,0000100001110110,0001011010010001,1111001001110000,0000011011111011,1111001111101100,1111011001011100,1111101110001011,0000000011101111,1110100111000011,1111100101111011,0000100011101010,0001001101010001,1111001100110001,1111000010001000,1110111110101100,0010001100110011,1110010100011111,1111100010100011,1101111111100001,0000001011011001,0001011110101010,0000000011110110,1111111111010101,0000101000110101,1111001001111110,0000101110110001,0000101100011010,1111011011010000,1110011011010110,0000000011110110,0000011101101101,0011011011010010,0010000111010000,0000000000101110,1111011111011100,1111111011010011,1111011010100111,0001000001100111,1110111011101111,1111001100010010,1111001101010001,0001001100001001,1111100010010000,0001100100011110,1111100010100100,1111000100100111,1110001010110100,1111011100101000,0000100010111000,1111100110011110,1111001111000111,0001001101101101,0000000111101000,0000001110101101,1111111011011111,0001000010010111,1111100111100011,0000001111101111,0001010101100010,1110110100101111,1110100010110001,0001110001111100,0000011101011001,0000000111110101,0000011000110000,0001100011101011,1111101110000101,0000101010011000,1111111000110101,1111001000101001,1110111101001001,0000111010010011,0001001011000110,1111010000010110,0001100000001011,0001011010110101,0001111010000111,1111100010010110,1111111100110111,1111010011011110,0000000001001111,0000010000101001,0001011011100011,1111010010101110,0000011100000010,0001010100110001,0000111001000001,1110100001100100,1111110100010001,1110010100001011,1111100101111111,1111110001101101,0000111111011100,1111000011010101,1111010101100011,0000011010000010,0000101110010001,1111010111001111,0000101111000011,1111010100000010,1101110111111110,1111010011011000,0001001111100111,1110111001100001,1111110001111000,0000001101111100,0001000010011010,1110100110100001,0000111010011111,0000010110111110,1110110100011011,1111110000001100,0001011000001101,1111011011100001,1111101101101101,0000001101010110,1111001011111111,1111101010111100,0000100001100000,1111000110101000,0000011010001111,0000011100000011,1110111101111101,1111111001110100,1111101110011010,1111101100100010,0000000001111001,1111011100011000,0000011000110110,1111101110011111,0000001100001010,1111110100111111,1111000100110111,0000011110110110,1111011010100001,1111111111011010,0000100100011010,0001001000010011,1111100011100110,0000100111001000,1111111100000000,1111100011101000,1111011001010011,0001010001010001,1111100110110001,0010010010010111,0000011100011010,1111111000101000,1111100101101111,0000100010001100,0000001000011011,1111001100111001,1111010100101101,0000110010100110,0000110110111101,0000000010110001,1111111001010010,0000011011111110,1111001100100101,0000110001001011,1110101101110010,1111111011000100,0000001001001010,0000101100011010,0000111000111000,1110100011100010,0000000011110100,1111111101000111,1111101101100101,1111000000111001,1111010101001100,1111001110110000,1111100111001111,0000111110111111,0000011011010011,0000011001000111,1111001001110001,1111011001011111,0000000111001000,1111001000101101,1111010101111100,0000010101001111,1111100000011111,0000011100010011,1111001100001010,1111110100101010,1111001111000010,1111111011100001,1111100000100000,1111001001110110,1111101101000111,0000001000110011,1111011001010101,0000100000001001,1111011011101000,1110111000011111,1111110000111110,1111100011101010,1111011010000000,1110110011111110,0000110001101011,1111110000000011,1111001011111001,1111010110001100,1111101110100010,1111000101000110,1111111010101101,0000100010010111,1111001101011011,1110111111100111,0001010111010001,0000001011001111,0000010000101100,0000001011100100,1110101100111110,0001100000100011,1111101110101011,1111001000100110,1110100111011101,0000100000100010,0000110101000010,1111110001110110,1111101111011010,1111100001000100,1111110101111101,0000100101101001,0001000111000000,0000001001001000,1101110101011010,0000100111100000,1111011011101100,0010100011101010,1111110011000011,0000011110110000,1111111110001010,1111101011101111,0000000100101010,0001001000001110,1111001110010100,0000000000111000,1110111111101010,0000101100010010,0000011101010011,0001000001000010,1111111011001011,1111001000000111,1110001011011010,1111111110101101,1110101111010110,1111011100011010,1110101110010010,1111101011010010,0000000110110000,0000010101011010,0000011001011001,0000110011110010,1111000010001111,0001011001100100,0000000100111010,1111000111010000,1101110101110101,1111111011011110,0000101001001010,1111000101010011,0000101100111111,1111001101011010,0000011110010101,0000110010110000,0000000000011110,1111111110110010,1111100001101000,0000101111111101,0000011101111000,1101111000011100,0001110011001110,1111100000001000,0001111110101010,0000110100001010,1111110010011110,1110010101100010,0000000000111100,1111011000110110,0000001111011000,1110001000111111,0001000101010011,1111101100101000,0000100011111011,1111100010011111,1111110000110001,1111101110001101,1111010011001010,1110100001111011,0000110100011000,1110100111101101,0001010000111110,1110110111011010,0001001000011100,0000000110100111,1110111011010111,1111111111111011,0000010000001010,1111101110011110,0001101010010011,1110010010001000,0001100101110000,1110111111101101,0000100101111111,0000101111001100,1111111110111100,0000000110110011,0001101001010111,1110111100101101,1111100111100011,1110100011100101,1111110011110001,1111110000111101,0000000100011001,1111000100100101,0000101110011011,0000000110110010,0000001101010110,0000011110111101,1111001110000100,1110111111101011,1111100100110100,0001000001111000,1110110100100000,1111100100111110,0001000011010111,1110111010010001,1111111000111011,0000101000001111,1110101111001001,1111010110011000,1111001101100101,0000010111011101,1110111111000001,0000010000110010,0001001100111111,1111101101001101,0000001101001001,1111100010101100,1111111110010111,0001100011110001,0000110000110110,0001010110110110,0000011100001000,0000110111100000,1111000101000111,1110110111000000,0000101000010001,1111110100100001,1111110111110001,0001011001110000,0000111010110100,0001001011001010,1111101101111000,1111111110000001,1111001111001011,1110111000101110,1111000000010000,0000110001001001,1111011110111101,0000011110000011,1111100000000101,0000000100011110,0000011111101100,1111110110111011,1111011101010111,0000100011011101,0000010011110111,0000010100001101,1111111101100011,0000011010110011,0000000101000011,1111100111110001,0000100001110010,1111010011101111,1111001110001011,0000000101011010,1111111000111011,1111010110010001,1111011000010001,1111010000001111,1111110101100011,1111111000111110,1111000101101100,1111011010111010,1111110001001010,1110110000000011,0000001111010110,0000101110011101,1111100011001111,0000100110010010,0000101000010000,1111101000110111,0000111000100100,1111110010011110,1111010111011000,1110100011001101,0000101111011011,0001001111110001,1111100011001000,1111010101100000,0000000110010100,1111000100100000,1111111010110110,0000001010001010,1111011101101010,1111100000100110,0000110110000001,1111010011111011,1110111011101001,0001000001000011,1111110001001100,0001000111011000,1111111011100000,1111011100110010,1111000111100100,1111100011110100,0000011100011010,0001011010111010,1111111111011100,0000100001100001,1111111101001000,0001100000000011,0000010111000010,1111011110000101,1111100110111010,0000000110100101,0000010110101011,0001100101111001,0000111110101010,0000001000001100,1111110101010110,1111110100111011,1111110101001001,1111101000101001,1110011111100010,0001010100111011,1111101011001101,1110100001011011,0001001000010111,0000000000001011,0000000110010001,0000010100100011,1110100101101101,0001100100110101,1110110001110110,1111101010111100,1111011010000000,0000001110100100,0000111000101000,1111110110111000,0001011001011111,0000011010000011,1110010100110001,0000010011011110,1111000011011011,1111011101101010,1110101111100000,1110111011001100,1111111111011001,1111111011100000,0000111000000000,1111011101011101,1111101101001000,0000101101010011,1111010010000000,1111111010011100,1111101101010011,1111101110100110,0000111111110111,1110101001011100,0010000101001101,1101110001001000,0000011001011010,0000111110010101,1111010111100011,0000110101000101,1111010001101011,1110111100110000,1111101001001000,1110001000100001,0001000111011001,1110100101111010,0000011001010111,1111111110011110,1110110000010001,1111011010110100,1110011110111011,1111000010110111,0000101011101110,1111010010010100,0000111110000011,1111000110101100,0000000000101000,1111111111111100,0000011010010001,0000010011011010,1111011000001101,0000000001111001,0001000100000011,1111110000101111,0000100010100111,1111101100100001,1111011010111010,0000011101000010,1111100100100100,0000101100111100,0000111111001110,0000001001100101,1111111100010110,1111000100010100,1111011110100000,1111011110110111,1111011010111101,0000111001011110,0000001010101000,1111100000110110,0001101110010001,0000100011010001,1111011101100011,1110110001000101,0000011100010001,0000001101100101,0000101011110001,0000000011110010,0000011100111010,0000100110001111,0000110011001100,1110111100000101,1111101001111001,1111000010011011,0000101101111011,0001001110101101,0000010101001010,1111111111110111,0000111101111001,1111111010011011,0000100001100000,1111011011001110,1111100010110010,1111101100001000,1111011010100001,0001001000010011,0001010100000001,1111010000011011,1110111111000100,1111111111100001,1111100110111101,0001000010010000,0000101101110011,0000101101011011,1111110110111110,0000001010010000,0001010010011011,0000010011111111,1111011010110001,1111101100011011,0000010110110000,0001000001010111,1111110111111011,1111111000111011,0000010110101011,1111111010100100,1111101100010001,0000010100011101,0000111111101001,0000011111110011,1111011110011111,1111011100010011,0000101000101011,0000001011001001,1111110110011110,1111000110100011,1111001100111001,1111100011000011,0000111110111101,1111010000100011,1111010110000100,1111101111111101,0000010110101011,1111010100010111,1111000101010000,1111100100101000,0000111010010011,0000101101001110,0000101101001010,1111110001111101,0000001010101101,1111011110110100,1111111100011000,1111011000111010,0000011010000101,1110110010100100,1111101110111000,0000101000111011,1111100000101011,1111010111001110,0000010000001001,1111101000101111,1110110000100011,1111001010000000,1111100011011111,1110011010111011,1111010110010011,1111110001000110,0001000100111001,1111011010111001,0000011000000101,0000011101001100,1110100010100111,1111110100100101,1111101101111010,1111011011001001,0000100111101001,1111110101110001,0000010111111011,0000011100100001,0000100101100000,0000011010101000,1111010011100001,1111111100100101,1111100000110101,0001001100111100,0000000100011110,0000000011010010,1111101010001000,0000010100110010,1111101111100101,0000100100010100,0000110010001101,1111101111001000,0000010101111111,0001011111000111,1111010011011101,1111100110111000,1110010110100001,0000011001111101,1111010111011000,0000010101101111,0000101010110010,0001100101101001,1111101011011100,0000000011110011,1110111110101011,0000111111001100,1110110010011011,0000011100110010,1111000001011001,0000110101000000,1111110001001100,0000000100101100,0000010110100000,0000001000100110,0000000011110010,0000101101011101,1110001111001110,1111010110011111,1110100100100010,1111110001000000,1111111101110101,1111000101001000,0001000101000101,0000000111101101,0000101001011100,0000110001011001,0000001011011001,0000001101111111,1101111111101101,0000011001101010,0000000000101100,1111000000010001,0000101001100000,1110111111010011,0000000111101100,0000111111111001,0000101110110100,0000111111100010,1101110100011101,0000001110101010,1111111011111101,1111110100111011,0000111000010111,1111001100100010,0000011011000111,1111011110000111,0000000100110000,1111111001100111,1111110011010111,1111111010011100,0000101111000011,1111110110101000,0000001010110011,1110011110000101,1111010110001001,0000110101100101,1111111100011010,0000111100101010,1111111110101001,0001011100010111,1111010011110111,1111111000111000,1110111011100101,0000011100111000,1111010110100100,0000100000101011,0000010100001100,0000011111001000,0001000111011011,0000010011101111,1111001110011111,1111010000010101,0000011010100110,1111101110001011,1111100111010111,1111011000011100,1111111001101111,1111101011101101,0001010000010100,1111011000011011,0000100011011101,1111011001000011,1111000111000000,0000000010011111,0000000010001011,0000001010100101,0000001111110011,0001001100001110,0000111010101000,0000101000101110,1111110011110111,1110010011000110,1111100010001101,0001101000000111,1111011101100110,0000000100010010,1111111100111100,0000110011011100,1111011001111001,1111001011010011,0000001111000101,0000000010001000,0000011101110001,0001010000011100,0000000001001010,1111111100001110,1111011101100001,1111110000110011,1110111100011011,1111101111100110,0000000111000001,0000100011111000,0001001011111100,0000000101110101,0000011111000011,1110110101100101,0000000110011101,0000100010011111,1110100111110000,0001010000000111,0000110100000110,1110111111011010,0000000111010100,0000100010000111,1111110111100001,0000011000011111,1111011010111101,1111111011111110,1110110111110011,1111010000001000,1111111111110100,1111101001001110,1111000110100000,0000001100101000,1111101101011111,0000011100101101,1111011001011011,1111000111010100,0000010100110101,1111110101101011,0000000000010001,1111100110011100,1111101100011111,0000100101010111,0000110001011111,1111011001001100,0000100000111100,1111010010100010,1111101110011110,1111001101111000,1111011001111000,0000111011010111,1111101000100100,0000100000000110,0000010011011000,0000010011000101,0000011011111011,1111000110011111,1111111101001010,0000100101000010,1111100000100111,1111001100111001,1111010101101000,1111110100001000,1111101110011111,1111110100000111,0000101011110111,1110101001100010,1111111010101000,1111011101101001,1111110010110001,0000111111011111,1111000100001111,1111110001110010,1111111101000011,1110100100111011,0000101100001110,0001000001101110,1110111111001100,1111011101101101,0000111011110010,0001001100101111,0000000011110111,0001011110100100,0000010011011001,0000000010001011,1111011111001000,0001001011110101,0000010001110010,1111100001100100,0001001010010010,0000100010000010,0001010011100110,1111111011100101,1111100001111011,0000100000010110,1111001000111111,0000011010000100,1111110011010100,0000100100000000,0001010001110000,1111011000100011,0000000000010110,0001001000001100,1111010001010101,0000001100010010,1101001111101011,0001000000011100,0000100111001011,1110111101111010,0000110000110000,1111101100111000,0000011011011010,0000011101001000,1110100110101001,0001100010001101,1101001111111110,1111100100101100,1110100010101000,0000011011111100,1111011000010110,1111110000100001,1110101101100000,1111101111100101,1111111001111111,1111010110100011,1111100010010011,1111011101011011,1111001111100011,0000010100010100,0000000011000010,1111000011110011,0000100011000010,1111010100011000,0000110110010110,1111111100011110,0001010101100010,1111111100001011,1111011000100010,1111100011111110,0000101001111001,1111100011100100,1111011100110000,1110111000101011,0000011000011101,1111111000100011,0000000100010001,1111010101101010,0000010101001111,1111101000110001,1111011000100110,1111111010001011,1111011011110010,1111101001010001,1111001101001010,0000010101010000,0000101001011010,1111100100110000,0000111110010000,0000111101111010,0000100001110010,1110111111001110,1111011100111100,0000001110110100,0000010101011000,0000011000001000,0000001011001001,1111100010100100,0000011110110100,0000110101111000,1111010011100000,1111001111110110,0000000101010110,0000000001010001,1111001010001010,1111011111000001,1111110111011011,0001001101111001,0001001101111101,1111111111010010,1111110010010000,1110000010101100,1111100011110100,1111011010001110,1110101111000000,0000100101100100,1110101110001100,0000101111100000,0000100100111110,0000010111001111,0000100000001000,1111010100110110,0000101100110001,0000001101000101,0000000000000110,1110111011000101,0000110101011111,0001010110110000,0000100101110111,1111110110001101,0000001100111010,1111111000010010,0000011010010001,0000101011100000,0001011111011100,0000101011000101,0000100000111101,1111100001111111,1110101101101100,0000001000110000,1111101110010101,1111100001111011,0000110111001000,0000010111000111,0000010110110101,0000100001111111,1111111110011001,1111111111110111,0000001011111001,0001100011111001,1111111111000001,1111110010111111,0000010111101100,1111011000110001,0000011010001111,0000001001011000,0000100111110101,0000001000011001,1111010011011110,0000000100111100,1111111000010100,1111110010011101,0000101100011111,1111100000010010,0000001000000001,1111010100101110,0000000011001110,1111010110111001,1111110101111101,0000011010100110,1111100111110100,0000010000111111,0000100100110011,0000101100100110,0000100101100010,1111010110011110,0000010101100000,0000001111011100,1110110100101100,0000001100010000,0000110011001001,1111010000001111,1111010101000010,0000100100001101,1111011111011001,1111011111010010,0000101011000101,1111001011010001,1111101101110101,1111110110101000,1111100001110100,0000000110000011,1111010110100011,1110110000111000,0001000010000101,1111000110111110,0000110110010001,0000011000110110,1110111011110110,1111001010001111,0000010111111111,0001011011010000,1111101110100110,1111011010101011,1111111101111000,1111111111100101,0000111011111111,1111101100010010,0000010100101011,1110101110100101,1111011110101111,0000010110110110,0000000000001101,0000000100000001,1111100011110010,1110011111011100,0000110110100110,0001011101011110,0001100001101101,1111001001011010,0000011001101111,1111111100011000,0000100100010000,0000001100111011,1111010100100111,1111100000100110,1111101011000100,1111111001101000,0000111101010100,0000001100000001,1111011101011111,0000100010000110,0000101011110000,0000101001011101,1111011010011101,0000100110000000,1101110110110101,1111011001100011,0000000010000001,0000000010111010,0000010101101001,1111111001111001,0000011101111011,1111110001101001,0000010000110010,0000110111110101,1110101101010001,1111110010000011,1111001000001110,0000101111100001,1111011000100101,0000001101110100,1111100000001011,1111100011110110,1111110000110101,1111110101110001,1110100101101100,1111000110100100,1111110100111000,1111110011000111,1111011001110101,0000111111000110,1110110000101010,1111101100100010,0000100110010100,1111111111100001,0000010111110111,1111010001001100,0000001111111000,0000111110100101,1110011010011010,0000000100101100,1110101001111111,1110101100010111,0000000100011100,0000000011000110,0000000001010000,0000010100001011,1111011010000010,0000001010110111,1111110101101001,0001010100110100,1111000001010100,1111001001010000,0000010110111011,0000010111001101,1111100011111000,1111001101110011,0001011100100001,0000100000111000,1110100101010101,1111010101101000,1111110101110010,1111010111101111,1110100100101001,0000101111101011,1110110111001010,0000110001011011,0001100001001110,1111011011000101,0000010110111011,1110110010011000,1110110100000001,0000111011111010,1111101000001011,0000100110011100,0000011000011001,0000111100100111,0001100001011111,1111011000110000,0000100101110001,1111001110011111,1111110110000010,0001001001110011,0000001010000110,1111001101101110,1110101110011001,0000001000110110,0000011001010001,1111111110000001,0000100000000001,0000000001000010,1111011010011001,0000110111111110,0000010011110101,1111011110010001,0000011111111111,1111100011000000,0000011011110011,1111111000111101,1111101101111000,0000001011111110,1111010011101101,0000101100111111,0000110001110100,1111000100001001,1111010100011000,0000001100000100,1111001100100001,0000100110101100,1111100011011100,0000101000000101,1111110011011001,1110111111100011,1111110111000111,0000110010010100,1111010011110111,0000110010101000,1110111011110000,0000010100111010,0001000000011100,1111010100101010,0000100101100110,1111111110011010,0000100010111011,1111010010001111,1111110001011000,0000010100000101,1111100001000100,1111100101001101,0000110001111011,0000100010101110,0000010001001110,1110110111000101,0000010101101011,1111000010111111,0000100000111011,0000111000111110,0000010001011000,0000011110001110,0000001010110010,0000111010110101,1111001011110111,0000101111111010,0000000000110001,1111100111001110,0000110001010001,1111000001001001,1111001101111101,1111111110011010,0000110000100100,0000011111100100,0000100100000100,1111100111110011,1111010010000101,1110111100110100,0000001110111000,1111111001011000,0000010010110011,0000100001101011,0000010111100101,0000110001000000,1111101111010010,1111111010111000,0000101110101101,1111001011110111,0000111101111101,0000111000001101,1111100000111010,1111000011110000,0000110110101001,1111110000101100,0000110101000011,0000010110110101,0000011001100010,1111010011001110,0000100101111101,1111101111000000,0000100001000011,1110101100011001,0000000110101101,0000010101001000,0000110110010000,0000101000001100,1111110000101000,1110110010011010,0000011101100011,1111111010010101,0000100110011010,1110011101011001,1111111101101000,0000110110001011,0001100001010111,0000111000111111,1111111100101111,1111011001011100,1111100001010001,0000001000000110,0001000101110110,1110110100111010,1111110100101010,0000010010010101,0001110110001001,0001100101100000,0000001110100001,0000101111010110,1110110011001111,0000001010011110,0000010011110010,1111110001110101,0000010001011000,0000011100010100,0000010111011110,0000110111110010,0000010000101010,1111011110010110,1110101001010110,1111011000110100,1111010000001000,1111110001010111,0000000001011100,0000000001100000,1110100111000101,0000110000011011,1111011101100001,0000100010110010,0000010001010001,0000001100011110,0000111001100000,0000111010101101,1101111001001011,0000101001001111,1111010011100000,1111010001000010,1111101100001010,1111101110000101,0000001011100011,0000010010001110,1111110100001100,1111011001110001,1110001100101100,1111111010100011,1110000111010100,0000000101011100,0000001000110100,0000001100000010,0000001100011001,1111001100101111,0000011110100010,0000111000000001,1111011000100010,0000001011110110,1111111000001101,0000100001100000,1111101001111000,1111100010011001,1111100100001110,1111100011111100,0000000111010100,1111101011110101,1111000101000000,0000100110000100,1111000011111100,0000011100000001,1110101001100001,1111100001110101,1110111101000111,0000000000100010,0000111011110101,0000010000101011,0000110100110110,1110111101100111,1111100010010010,0000000110011010,1111001010000011,0000000000000111,0000100111000010,1111111101111010,0000011101000101,0000001110001111,0000100110001110,1111011000110001,1111111101100011,1111110110100101,1111001101100000,0000001000011111,1111111110110010,0000001111101011,0000011110010110,1111101000111110,1111101110000111,0000111111001101,1110111111001000,0000010110100111,0001000011111101,1111000101010101,1111110110100000,1111111111000100,0000101010101001,1111111100011100,0000101001001000,1111110110101100,1111100000101100,0000110011101010,0000100111010110,0000011100000101,1111111111011010,0000001011110000,0000000100111010,0000011101010010,1111101001100111,1111101011001001,1111110110101111,0000101001111100,0000011010011100,0000001100101111,0000111100011001,0000111010010101,1111011110100000,0000100111100011,1111111100100011,0000011000000001,1111001001000110,0000000101101100,1111101100011011,1111010110001101,1111100010111101,0000110100101101,0000010011110011,0000011100111100,0000111110111011,0000100000001101,1111011000000110,1111110110001000,1111111111011101,1111110111010100,0000110101000001,0000001110101010,1111100110000010,0000111001111010,0000001101001111,0000011011101000,0000010001011011,0000100010000001,0000100011111011,1111100100001011,1111100011101101,0000000111101010,1111000111111011,0000010100000000,0000011101011101,1111011000101000,1111101111001100,1111010010101001,1111101001010010,0000010000011000,0000101000010110,1111101101101001,1111111101100111,1111010111000011,1111100000100110,1111011011000010,1111011111010011,0000011111000111,1111001110010110,1111000100110001,0000001000111010,1111001010110111,1111001000010001,0000110100001101,0000001100001010,0001000010110101,0000110101001010,1111001100101010,1111000111101010,1110111000100001,0001100111111000,0000000000000010,1111111101001110,1111011010011100,1111101110100011,0000010001111101,0000100010101111,1111111111101010,1111111100100101,1111001110110110,0001100000101010,0001001100001100,0000100011011100,0000010000011110,0001000110011100,0001010101010010,0001001111111100,0001000011000100,1111000010010111,1111111110101101,0001011010111101,1111110010011101,0000100000001010,1111000011100110,1111110000111101,0001000010011110,0000110101011011,0001000100111111,1111101101000110,0000101001111110,1111100111011100,0000100110111011,0000110110101010,1111011100110111,0000011010110110,0000110100110100,0000110001001001,0000110010010111,0000111001110011,0000011110010000,0000100010100101,1111100000100101,0000100011111010,0001000010001011,1111001010111111,0000000110011000,0000101100010000,0000011001000110,1111001001000111,0000110100010010,1111000101001011,0000100101100100,0000000000011110,0000110101101010,0000000011100100,0000001001010111,1110101110100111,1111111100100101,0000001111000010,0000000110010001,0000001101001001,1111111111000110,0000000101110100,1111001101110101,1110011001001111,0001001001010010,1111000010100110,1110111100011011,0000011010010000,1111100110100010,0000010101000110,0000010010010101,1111011001010100,0000100101101111,0000001111000001,0000111011011010,0000010010001011,0000100111001000,0000011100111011,0000101001101001,1111110001110011,0000101010111101,1111101010101110,0000011101000100,1111100100101101,1111111111010111,0000010000100011,1111010100010010,1111010110100111,1110101111011101,1111110011001100,0000010000110101,1111011011101010,1111000100000001,0000111010110010,0000101000001101,0000000101100011,1111010001100011,1110110111000100,0000010101110110,1111010011000101,0000110100111010,0000110010100110,1111000010011001,0000111101111001,1111110010010100,1111000001111101,0000101001101010,1111010100111110,1111101001010101,0000100110101010,0000110111111110,0000101010011110,1111100000110100,0001000010101000,0000010110001111,0000000100001010,0000001111010010,1111010000110011,0000000100101011,0000111111010110,0000110011100010,1111100101010000,1111100110011101,1111010110100100,0000100011010110,1111011011101101,1111000001100101,0000100011011000,0000001010011100,0000000110110000,0000100001101111,0000011101111100,0000111110001100,1111110100101111,1111100011001100,1111001100110110,1111101100010000,0000101111100011,0000001111110100,1111101011100111,1111101111100110,1111000110000101,1111101110101101,1111100010010101,1111110001001100,1111010110001000,1111101100011011,1111010011110101,1111011011011010,1111111010101111,1111111000011000,1111001110001000,1111010100100111,0000010011010001,0000001000001111,1111011001111011,1111110101111010,0000001101010011,0000000001001011,0000110001111011,1111001011110011,0000100110011011,1111010100110001,0000011101100110,0001000100010100,1111110011101001,1111101111011100,0000010010101101,0000110001000111,1111100000000011,0000110101110001,1111101101011111,0000100001111100,1111100111010111,1111011100001100,1111011100001001,0001000110010100,1111001000111000,0000100111011010,1111100100001001,0000010110111011,0000010100110000,1111010010111101,1111110111101010,1111100100100001,1111010001101011,0000000110001100,1111101001010001,1111001000100100,1111001110010111,1111110101100111,0000010011011010,0000101011100110,1111110101101111,0000011110101010,1111110000011101,1111010011101111,0000011001111101,1111101101101110,0001000010001100,0000001111100100,1111101011000100,1111100101001101,1111010111011001,0000010001100001,0000010100000111,0000000101100000,0000111000111101,0000011000000010,1111110001010011,0000010000100001,0000110000101011,0000010110111100,0000000011000010,0001000001101000,0000110001110010,1111010100110011,0000110010111010,1110111010010010,1111101110111111,0000011000110111,1111111111000000,0000010000001010,0000001011011011,0001000011100010,0000001100110011,1111101101100110,0000101111111000,1111001110111100,1111101110011111,0000001011010001,0000010100000101,1111101010010011,0000000110000111,1111101111000100,0000001111110011,1111101101000001,1111111110110001,1111110000010111,0000111001100110,0000110010011011,0000011110110110,1111010010100110,0000101010111100,1111101110110010,1111111101000000,1111001010100000,1111111011111111,1111011110101010,0000010001011111,1111100011001001,0000001011100001,0000101010111000,0000100010001111,0000001101001000,0000001001011110,1111011111101010,1111001100010111,1110111100101101,0000010100100010,1111110100010111,1111000001001110,0000000110100001,1111100011010001,1111001001011001,0000000101000100,1111110111111110,1111110110100000,0000011111101001,1111001101000111,0000011101101001,1111110010101110,1111111001000111,0000011010011000,0000111001010010,0000101001101000,0000110100011100,1111111100100011,0000001000111011,0000011001010010,1111100010000010,0000001010001001,0000000111111101,1111100100001110,1111110001001001,1111111100011110,0000001111011110,0000000101100010,0000100111110000,0000000100010011,1111001100110111,1111100111000111,0000000001011101,1111101000110010,1111100101100000,1111111101001110,1111111110100111,1111100101000010,1111111011110001,1111010000101011,1111100011011010,1111101100011001,0000000111101110,1111111000000011,0000000111101111,1111101001011000,1111001001010100,0000110010111010,1111100011001110,0000010100000110,0000001001001100,1111111100000111,0000001101000101,0000011111101010,0000100001111010,1111101000010010,1111010001100011,1111001011100011,1111100101000000,0000110110000111,0000101100001011,0000010100010111,0000000101101000,0000011011100110,0000011010001011,0000011010001001,1111001001110001,1111011100000010,0000001100111101,1111101100101101,0000001101111111,0000101010111100,1111100001000000,0000101011011101,0000110111111011,1111111011000110,1111101001110000,1111010101000011,0000101000011100,0000100010010111,0000010111111001,1111110110011010,1111101000100001,1111000100001111,1111010110100100,1111111011001010,0001000001011001,0000001011001111,1111110100001110,0000101001000111,1111100011010000,0000111010100011,1111100011101000,0000001111000000,0000100001100011,1111001010011101,0000110100101000,0000111010010001,0000010111011101,0000000000000000,0000000000000000,0000000000000000,0000000000000000,0000000000000000,0000000000000000,0000000000000000,0000000000000000,0000000000000000,0000000000000000,1111110101000010,0000011011010100,0000101010100101,0000000000011100,1111010111101110,0000000110111011,1111000101101110,0000101010011000,0000000001010010,1111010111111100,1111101111110100,0000111000110010,0000011011010011,0000100000110101,1111001111100000,1111011011111001,0000101011101110,0000100110100011,1111110100110111,0000011101100000,0000011101000011,1111011000000010,1110111000101001,1111000110101001,1111001101010111,0000101110110110,1111001011110010,1111100011101100,0000011111111100,1111101010100100,0000000001110010,1111011011000011,1111111101101011,1111110111110000,0000011000110011,1111010101000011,0000101100101000,1111101100000001,0000101000000110,1111110000011100,0000101001101101,1111110111101111,1111111111010000,1110111110010001,0000001010000010,1111100101001000,0000001111111100,1111111110100101,1111011110001001,0000100100001011,1111010000010001,1111100011010111,1111110111101010,0000001000001110,1111001110111010,1111011011101101,1111001000000001,1111111001010111,1111101010000101,1111011011111011,0000011001011011,0000011111001110,0000101000010100,1111111110001101,0000101111011001,1111010011100000,0000010010100101,0000010100111010,1111110100010001,0000001110111000,1111000111100010,0000000111110000,1111011101001100,1111001110110001,0000010100110001,0000001100100000,1111010010100110,1111101001101101,0000000100000000,1111110001000101,0000010101010110,1111010101010101,0000101000010011,0000101100011001,1111100100111111,0000000101110000,1111111011000101,1111000001011110,1111111001000110,1111101011010100,1111001110101000,0000110001011011,0000000111110111,0000000101111010,0000101000100010,1111001001001010,0000101111111101,1111000110011111,1111011011110000,1111111011001001,1111001110011011,1111100100111110,0000100100110010,0000000111100010,0000110100100110,0000000100001110,0000100001111001,1111011001010110,1111010001001010,0000001011011101,1111000110000101,1111100101111011,1111000001011101,1111101011100000,0000110110100001,0000000101000011,1111011011001100,1111100101111000,1111111010110011,0000011110101011,1111100011011101,0000001010110010,0000101101100100,1111000101101010,1111111010111001,0000001001010111,0000100101110001,1111001100011010,1111011011101010,0000101110100110,0000101000111100,1111010100001110,0000101010100110,1111001010011110,1111101111101001,0000011101011010,1111000010000100,0000101001001101,0000110110110111,1111110011001011,1111100000000111,0000001010001001,0000101000000001,0000010001010010,1111000110000111,0001000010101101,1111100001011101,1111010110101011,1111110100111101,1111011100010110,1111011110110010,1111110000001000,1111001110001011,0000100010010011,0000001010111011,1111101010111100,0000101001111001,0000101011101011,1111111010000000,1111000011100011,0000010101001001,0000101000010100,0000101011000010,0000001110110001,1111110111010000,1111000011001011,0000110011101110,0000000000000111,1111101110011110,0000000110001100,0000101101010010,1111111100001110,0000101000111101,0000110011000001,1111001101101010,1111011010000100,0000001001010000,0000101111011101,1111110100001111,1111100000110111,0000000000000000,0000000000000000,0000000000000000,0000000000000000,0000000000000000,0000000000000000,0000000000000000,0000000000000000,0000000000000000,0000000000000000,