1111110011000101
1111111100010110
0000000101010110
0000010000000100
1111111011000001
0000000101101100
0000001111011001
0000000001110100
0000000110001000
1111110111101110
0000000011000001
1111111001110001
1111110110001110
0000001010010110
1111111011101000
1111110100111011
0000001110001111
1111111011101110
1111110010001110
0000000111010001
0000010010000110
0000001111000111
0000000010001000
0000010100110011
0000000111100100
1111111111010110
1111111111001010
1111111001001100
1111111110101110
1111111100111001
1111110100011000
1111111000100110
0000001010111010
0000001000000101
0000001001001001
1111111001111001
1111111000101001
0000000100100101
0000001000110000
0000001111011000
1111110101011010
0000001011001110
0000000000110111
1111111000000111
0000001110011100
0000000110011011
0000000110110110
1111110100001011
1111111111101011
0000001101011011
0000000000010001
1111111111001100
1111111001000111
1111111001001010
1111110011100110
0000000000001110
1111111101010000
0000010000010110
1111110100001011
0000000110101011
1111111001100000
1111110100110110
0000001011101001
0000000101010000
0000001001010100
1111111100110010
0000001110000000
1111111001011100
1111111011001001
0000010000010101
0000000000111111
1111111110000001
1111111010000111
0000001010010000
1111110101111000
1111110111001011
1111110110010000
1111110101111111
1111110100111010
0000001011010100
1111110101100101
0000001011110000
0000010000011101
1111111001000101
1111110101010101
0000000111000110
0000010001100000
0000000010000111
0000000011000000
0000000110100101
0000000010100010
0000001100000111
0000001010101010
0000001011111010
1111111110001010
1111110100100011
1111110111111101
0000000110011111
1111110100101000
0000000111011000
