0111100011010110,1000000000000000,1100111101010110,0111101111100001,0111111111111111,0100011110110010,1110010100110100,1000000000000000,1010000011001000,1101100010001010,1101010001000000,0001100111000001,1110110000011101,0001100111001101,0010101100001001,1000011110010100,1010011011111010,1001011111001110,0011010001011100,0011111101110000,1000000000000000,1111110101111110,0100110010110011,1001010101001010,0111111111111111,0100011111011100,1000000000000000,0111111100110000,1000000000000000,0101000110110000,0011010110000011,0001001010010010,0111111111111111,1000000000000000,0010011100110100,1111010110011110,1101101001100011,1000100000100000,0111111111111111,0111111111111111,0111111111111111,0011111101011000,1111010011010101,0011000010110000,0001001011011011,1000000000000000,0001111101011111,0001101001111111,0111111111111111,1000000000000000,0001100101101100,1000000000000000,1001000111000101,1000000000000000,0111011011111010,1010001100101111,0110100101100000,0010010010000111,1000111110010111,0111111111111111,1100000101000101,1001000010001010,0111111111111111,0000101110001111,0111111111111111,1000001011001111,0110011010111000,0111101010101001,0101111101010010,1011001000110100,0111111111111111,0010001101001101,0010100101101101,1010010000111011,0100011101000101,1000100011101111,1000000000000000,0111111111111111,1000000000000000,0100001011011111,1110011100110001,1000000000000000,1000000000000000,0111111111111111,1100110000001000,0000001111100010,1000010001011000,0101000110110110,0010010011001001,1000000000000000,1010011100000000,1111000100100011,0111111111111111,1101000010011001,0001001101000101,0011010110011011,0111001111001100,0001011001000010,0000110101101110,0010000011000100,